#pragma once
#include <Arduino.h>

alignas(16) const unsigned char g_glove_model[] = {
  0x1c, 0x00, 0x00, 0x00, 0x54, 0x46, 0x4c, 0x33, 0x14, 0x00, 0x20, 0x00,
  0x1c, 0x00, 0x18, 0x00, 0x14, 0x00, 0x10, 0x00, 0x0c, 0x00, 0x00, 0x00,
  0x08, 0x00, 0x04, 0x00, 0x14, 0x00, 0x00, 0x00, 0x1c, 0x00, 0x00, 0x00,
  0x90, 0x00, 0x00, 0x00, 0x10, 0x01, 0x00, 0x00, 0x88, 0x07, 0x00, 0x00,
  0x98, 0x07, 0x00, 0x00, 0xe4, 0x14, 0x00, 0x00, 0x03, 0x00, 0x00, 0x00,
  0x01, 0x00, 0x00, 0x00, 0x10, 0x00, 0x00, 0x00, 0x00, 0x00, 0x0a, 0x00,
  0x10, 0x00, 0x0c, 0x00, 0x08, 0x00, 0x04, 0x00, 0x0a, 0x00, 0x00, 0x00,
  0x0c, 0x00, 0x00, 0x00, 0x1c, 0x00, 0x00, 0x00, 0x3c, 0x00, 0x00, 0x00,
  0x0f, 0x00, 0x00, 0x00, 0x73, 0x65, 0x72, 0x76, 0x69, 0x6e, 0x67, 0x5f,
  0x64, 0x65, 0x66, 0x61, 0x75, 0x6c, 0x74, 0x00, 0x01, 0x00, 0x00, 0x00,
  0x04, 0x00, 0x00, 0x00, 0x70, 0xff, 0xff, 0xff, 0x0a, 0x00, 0x00, 0x00,
  0x04, 0x00, 0x00, 0x00, 0x08, 0x00, 0x00, 0x00, 0x6f, 0x75, 0x74, 0x70,
  0x75, 0x74, 0x5f, 0x30, 0x00, 0x00, 0x00, 0x00, 0x01, 0x00, 0x00, 0x00,
  0x04, 0x00, 0x00, 0x00, 0x5e, 0xf8, 0xff, 0xff, 0x04, 0x00, 0x00, 0x00,
  0x05, 0x00, 0x00, 0x00, 0x69, 0x6e, 0x70, 0x75, 0x74, 0x00, 0x00, 0x00,
  0x03, 0x00, 0x00, 0x00, 0x5c, 0x00, 0x00, 0x00, 0x2c, 0x00, 0x00, 0x00,
  0x04, 0x00, 0x00, 0x00, 0xb8, 0xff, 0xff, 0xff, 0x0e, 0x00, 0x00, 0x00,
  0x04, 0x00, 0x00, 0x00, 0x13, 0x00, 0x00, 0x00, 0x43, 0x4f, 0x4e, 0x56,
  0x45, 0x52, 0x53, 0x49, 0x4f, 0x4e, 0x5f, 0x4d, 0x45, 0x54, 0x41, 0x44,
  0x41, 0x54, 0x41, 0x00, 0xdc, 0xff, 0xff, 0xff, 0x0d, 0x00, 0x00, 0x00,
  0x04, 0x00, 0x00, 0x00, 0x13, 0x00, 0x00, 0x00, 0x6d, 0x69, 0x6e, 0x5f,
  0x72, 0x75, 0x6e, 0x74, 0x69, 0x6d, 0x65, 0x5f, 0x76, 0x65, 0x72, 0x73,
  0x69, 0x6f, 0x6e, 0x00, 0x08, 0x00, 0x0c, 0x00, 0x08, 0x00, 0x04, 0x00,
  0x08, 0x00, 0x00, 0x00, 0x0c, 0x00, 0x00, 0x00, 0x04, 0x00, 0x00, 0x00,
  0x13, 0x00, 0x00, 0x00, 0x6d, 0x69, 0x6e, 0x5f, 0x72, 0x75, 0x6e, 0x74,
  0x69, 0x6d, 0x65, 0x5f, 0x76, 0x65, 0x72, 0x73, 0x69, 0x6f, 0x6e, 0x00,
  0x0f, 0x00, 0x00, 0x00, 0x74, 0x06, 0x00, 0x00, 0x6c, 0x06, 0x00, 0x00,
  0x38, 0x06, 0x00, 0x00, 0x74, 0x05, 0x00, 0x00, 0x14, 0x05, 0x00, 0x00,
  0xe4, 0x01, 0x00, 0x00, 0x34, 0x01, 0x00, 0x00, 0xd4, 0x00, 0x00, 0x00,
  0xcc, 0x00, 0x00, 0x00, 0xc4, 0x00, 0x00, 0x00, 0xbc, 0x00, 0x00, 0x00,
  0xb4, 0x00, 0x00, 0x00, 0x94, 0x00, 0x00, 0x00, 0x74, 0x00, 0x00, 0x00,
  0x04, 0x00, 0x00, 0x00, 0x36, 0xf9, 0xff, 0xff, 0x04, 0x00, 0x00, 0x00,
  0x60, 0x00, 0x00, 0x00, 0x0c, 0x00, 0x00, 0x00, 0x08, 0x00, 0x0e, 0x00,
  0x08, 0x00, 0x04, 0x00, 0x08, 0x00, 0x00, 0x00, 0x10, 0x00, 0x00, 0x00,
  0x28, 0x00, 0x00, 0x00, 0x00, 0x00, 0x06, 0x00, 0x08, 0x00, 0x04, 0x00,
  0x06, 0x00, 0x00, 0x00, 0x04, 0x00, 0x00, 0x00, 0x01, 0x00, 0x00, 0x00,
  0xeb, 0x03, 0x00, 0x00, 0x0c, 0x00, 0x18, 0x00, 0x14, 0x00, 0x10, 0x00,
  0x0c, 0x00, 0x04, 0x00, 0x0c, 0x00, 0x00, 0x00, 0xa4, 0x1a, 0xf8, 0xb7,
  0x09, 0x88, 0x4c, 0xca, 0x02, 0x00, 0x00, 0x00, 0x02, 0x00, 0x00, 0x00,
  0x04, 0x00, 0x00, 0x00, 0x06, 0x00, 0x00, 0x00, 0x32, 0x2e, 0x31, 0x38,
  0x2e, 0x30, 0x00, 0x00, 0xa2, 0xf9, 0xff, 0xff, 0x04, 0x00, 0x00, 0x00,
  0x10, 0x00, 0x00, 0x00, 0x00, 0x00, 0x00, 0x00, 0x00, 0x00, 0x00, 0x00,
  0x00, 0x00, 0x00, 0x00, 0x00, 0x00, 0x00, 0x00, 0xbe, 0xf9, 0xff, 0xff,
  0x04, 0x00, 0x00, 0x00, 0x10, 0x00, 0x00, 0x00, 0x31, 0x2e, 0x31, 0x34,
  0x2e, 0x30, 0x00, 0x00, 0x00, 0x00, 0x00, 0x00, 0x00, 0x00, 0x00, 0x00,
  0xa8, 0xf9, 0xff, 0xff, 0xac, 0xf9, 0xff, 0xff, 0xb0, 0xf9, 0xff, 0xff,
  0xb4, 0xf9, 0xff, 0xff, 0xea, 0xf9, 0xff, 0xff, 0x04, 0x00, 0x00, 0x00,
  0x50, 0x00, 0x00, 0x00, 0x7f, 0x8d, 0x7f, 0x3f, 0xf9, 0x81, 0x7f, 0xd6,
  0x92, 0x7f, 0x7f, 0x70, 0x7f, 0x5c, 0x81, 0xb4, 0xee, 0x81, 0x67, 0x7f,
  0x81, 0xf0, 0x81, 0xef, 0x78, 0x81, 0xe2, 0x81, 0xc8, 0x7f, 0x7f, 0x6a,
  0x81, 0xee, 0x81, 0x22, 0xfc, 0x81, 0x81, 0x94, 0x81, 0x59, 0x37, 0x7f,
  0x7f, 0xe9, 0xa0, 0x7f, 0x7f, 0x93, 0x81, 0x35, 0x8b, 0x81, 0x40, 0x81,
  0xd2, 0x7f, 0x81, 0x3a, 0xd2, 0x7f, 0x7f, 0x61, 0xbe, 0x7f, 0xd9, 0x81,
  0x81, 0x45, 0x85, 0x81, 0x7f, 0x79, 0x81, 0x20, 0x7f, 0x2a, 0x7f, 0x8b,
  0x46, 0xfa, 0xff, 0xff, 0x04, 0x00, 0x00, 0x00, 0xa0, 0x00, 0x00, 0x00,
  0xa3, 0x0f, 0x00, 0x00, 0xed, 0x34, 0x00, 0x00, 0x5e, 0x18, 0x00, 0x00,
  0xfb, 0x1f, 0x00, 0x00, 0x1f, 0x1e, 0x00, 0x00, 0x2f, 0x06, 0x00, 0x00,
  0xe3, 0x13, 0x00, 0x00, 0xff, 0x3e, 0x00, 0x00, 0xaa, 0x07, 0x00, 0x00,
  0xdd, 0x1e, 0x00, 0x00, 0x9b, 0xf4, 0xff, 0xff, 0xc8, 0xf7, 0xff, 0xff,
  0x86, 0x16, 0x00, 0x00, 0x79, 0x23, 0x00, 0x00, 0x40, 0xfa, 0xff, 0xff,
  0x9c, 0x09, 0x00, 0x00, 0x79, 0xf7, 0xff, 0xff, 0x72, 0x1c, 0x00, 0x00,
  0x3c, 0x18, 0x00, 0x00, 0xe2, 0x1d, 0x00, 0x00, 0x59, 0x0e, 0x00, 0x00,
  0x36, 0xfb, 0xff, 0xff, 0x56, 0x15, 0x00, 0x00, 0xae, 0x08, 0x00, 0x00,
  0x43, 0x14, 0x00, 0x00, 0xfd, 0xfe, 0xff, 0xff, 0x38, 0x04, 0x00, 0x00,
  0x1c, 0xd3, 0xff, 0xff, 0xe1, 0xfb, 0xff, 0xff, 0xe1, 0x1c, 0x00, 0x00,
  0x6c, 0x37, 0x00, 0x00, 0x48, 0x0b, 0x00, 0x00, 0xe4, 0xf7, 0xff, 0xff,
  0x51, 0xff, 0xff, 0xff, 0x31, 0x21, 0x00, 0x00, 0xf3, 0x0a, 0x00, 0x00,
  0xab, 0x06, 0x00, 0x00, 0xcb, 0x19, 0x00, 0x00, 0xba, 0xec, 0xff, 0xff,
  0xf2, 0x06, 0x00, 0x00, 0xf2, 0xfa, 0xff, 0xff, 0x04, 0x00, 0x00, 0x00,
  0x20, 0x03, 0x00, 0x00, 0x2c, 0x33, 0xf8, 0x18, 0x1e, 0x36, 0x30, 0x81,
  0xe0, 0x21, 0xdc, 0xd0, 0x15, 0xc9, 0x30, 0x55, 0xc8, 0xb9, 0xf6, 0xa2,
  0xf0, 0x5a, 0x14, 0x1d, 0xfb, 0xfc, 0xdf, 0x4d, 0x4d, 0xc5, 0x0a, 0x49,
  0x1b, 0x32, 0xd6, 0xb9, 0x1c, 0xe7, 0x7a, 0xec, 0x25, 0xfb, 0x63, 0xf9,
  0xc8, 0xaf, 0xc3, 0x59, 0x23, 0xaf, 0xc3, 0xb4, 0x30, 0x49, 0x00, 0xa6,
  0xcb, 0xd7, 0x56, 0x5a, 0x90, 0xf2, 0xd2, 0xbd, 0x1e, 0x81, 0x19, 0xf7,
  0x18, 0x94, 0xfb, 0xa7, 0xe8, 0x31, 0xa3, 0x2c, 0xc1, 0xbc, 0xcf, 0xfb,
  0xe7, 0x9a, 0x29, 0x8a, 0x06, 0x00, 0xec, 0xf9, 0x37, 0x0d, 0x2b, 0x33,
  0x04, 0x22, 0xc3, 0x34, 0x16, 0xe6, 0x29, 0x56, 0x1b, 0x2c, 0xa4, 0x81,
  0xb0, 0xe6, 0x2e, 0x02, 0xf9, 0x2f, 0xc6, 0xc4, 0x99, 0x28, 0xa9, 0x3a,
  0x28, 0xf5, 0xd1, 0xc7, 0x54, 0x7f, 0x5d, 0x41, 0x2b, 0x22, 0x14, 0x33,
  0x34, 0x3f, 0x41, 0x61, 0x75, 0x59, 0xef, 0x34, 0x00, 0x09, 0x32, 0x30,
  0xcb, 0xf6, 0x36, 0xdc, 0x51, 0x0b, 0x04, 0x27, 0xc7, 0xd1, 0xd1, 0x64,
  0xa4, 0x61, 0xe9, 0x45, 0xf4, 0xf7, 0x0b, 0x30, 0x15, 0x43, 0xf9, 0xf9,
  0x33, 0x57, 0x5b, 0xaf, 0x81, 0x44, 0xd9, 0x83, 0xc7, 0xb7, 0x4a, 0x22,
  0xe6, 0x0e, 0x0c, 0xe9, 0x28, 0x6b, 0xcf, 0x2f, 0x12, 0x12, 0xb9, 0x1e,
  0x17, 0xdd, 0x2e, 0xfe, 0x3a, 0xc2, 0xf9, 0xb6, 0x0d, 0xd8, 0xd4, 0xcd,
  0xf9, 0xd5, 0x7b, 0x27, 0x00, 0x96, 0x81, 0x2b, 0x71, 0xa8, 0x41, 0x56,
  0x23, 0x6a, 0x4a, 0xb7, 0x79, 0x6b, 0x2e, 0x57, 0x00, 0x18, 0x33, 0x4c,
  0x08, 0x46, 0x23, 0x1c, 0x33, 0x3a, 0x19, 0xa6, 0xe5, 0x6d, 0x63, 0x1f,
  0x8c, 0x58, 0xe4, 0xff, 0x21, 0x12, 0xe9, 0x14, 0x81, 0xf0, 0x17, 0x15,
  0xfa, 0x0b, 0x42, 0x37, 0x31, 0xf7, 0xd7, 0x13, 0x1a, 0xf4, 0x13, 0x09,
  0xc1, 0xea, 0x34, 0xb3, 0x23, 0xf2, 0x2c, 0xbe, 0xbd, 0x9f, 0xb9, 0x39,
  0xba, 0xff, 0xc4, 0x22, 0x2a, 0xc9, 0x04, 0x1c, 0x9a, 0xd7, 0xe2, 0x88,
  0x37, 0xdd, 0xf7, 0xe8, 0x0a, 0x1d, 0xed, 0x14, 0x81, 0xe4, 0xfe, 0x00,
  0xfb, 0x19, 0xea, 0x2e, 0x4a, 0x15, 0x8f, 0x35, 0xa9, 0x2a, 0xea, 0xfb,
  0x0a, 0x4c, 0x3b, 0x1f, 0xf3, 0xdc, 0x51, 0x33, 0x0c, 0x09, 0xc8, 0xd3,
  0xb7, 0x3e, 0x0f, 0x0d, 0xfc, 0x0a, 0xf5, 0x55, 0x3d, 0xff, 0x22, 0x1b,
  0xc9, 0x54, 0xe6, 0x03, 0x23, 0x17, 0x4e, 0x59, 0x0e, 0xd4, 0xf4, 0xca,
  0xe5, 0x10, 0x38, 0xab, 0xbe, 0x30, 0x0e, 0x06, 0xf1, 0x3b, 0x41, 0x25,
  0xed, 0x4f, 0x81, 0xb3, 0xdd, 0x2e, 0xe2, 0x08, 0xe5, 0x21, 0x1e, 0xf5,
  0x81, 0x40, 0xd8, 0xc9, 0xd9, 0xea, 0x00, 0x26, 0xed, 0xca, 0x04, 0xf1,
  0xe4, 0x31, 0x10, 0x15, 0xed, 0xf4, 0x06, 0xfc, 0x26, 0xfa, 0x0a, 0x2d,
  0x10, 0xf9, 0xdd, 0xfd, 0x28, 0x03, 0x17, 0xc9, 0xde, 0xe2, 0xfd, 0x5f,
  0xca, 0xa7, 0xed, 0x01, 0xf4, 0xda, 0xf3, 0x01, 0xed, 0xf4, 0xdf, 0xa3,
  0x24, 0x07, 0xf2, 0xed, 0xe8, 0x42, 0xdf, 0x4a, 0x81, 0xf7, 0xf6, 0x01,
  0xf8, 0xfa, 0xef, 0xd0, 0xe7, 0xf7, 0xf7, 0x04, 0xed, 0x05, 0xf9, 0x56,
  0x39, 0x5b, 0x58, 0x45, 0x2c, 0x22, 0x3d, 0xab, 0x42, 0x5f, 0x81, 0x97,
  0x36, 0x64, 0x16, 0x78, 0xe5, 0xe0, 0x78, 0x13, 0xb7, 0x2b, 0x47, 0xf5,
  0x07, 0xc1, 0xe5, 0x70, 0xfb, 0xe8, 0x3d, 0x5d, 0x38, 0x4c, 0xf3, 0xf8,
  0xf5, 0xcc, 0xf8, 0x65, 0x14, 0x48, 0x51, 0x97, 0x00, 0xf8, 0xd1, 0xf5,
  0x48, 0xee, 0x01, 0x00, 0x6d, 0x81, 0x00, 0xf7, 0x17, 0xcc, 0xcb, 0xf5,
  0x00, 0xe8, 0xe2, 0x00, 0xc7, 0x00, 0x2e, 0x3e, 0x00, 0x00, 0x00, 0x20,
  0x00, 0x0d, 0x00, 0xd5, 0xe6, 0x00, 0x34, 0x28, 0x10, 0x40, 0xf3, 0x0e,
  0x5a, 0x49, 0x30, 0x2f, 0xc7, 0x35, 0x01, 0x02, 0xe7, 0xf8, 0xde, 0x34,
  0xe5, 0x10, 0xf6, 0x1a, 0x03, 0xea, 0x0c, 0x56, 0x16, 0x03, 0xdb, 0xa9,
  0xf0, 0x27, 0x7f, 0x3b, 0xdb, 0xb8, 0x33, 0xea, 0x19, 0x40, 0x06, 0xf8,
  0x5b, 0x30, 0x2e, 0x7a, 0x14, 0xd1, 0x1d, 0x20, 0x14, 0x08, 0x98, 0x8b,
  0x79, 0x40, 0xbb, 0xfb, 0xd5, 0xdd, 0x26, 0xf8, 0xe0, 0xe1, 0x2b, 0xfb,
  0x7f, 0x91, 0xd3, 0xff, 0xb5, 0xf3, 0x40, 0xe6, 0xa2, 0xf5, 0x19, 0xf2,
  0xf2, 0xc9, 0xea, 0x4b, 0xb6, 0x16, 0x27, 0x31, 0xb4, 0x4b, 0x27, 0x2e,
  0x0e, 0x53, 0x03, 0x57, 0xf9, 0x42, 0xc7, 0x54, 0x2a, 0x16, 0xe6, 0x2b,
  0x15, 0x08, 0x0a, 0xb5, 0xc5, 0x00, 0x4b, 0x81, 0xe1, 0xef, 0x37, 0x16,
  0xd2, 0x21, 0xd3, 0x4b, 0x2e, 0x0f, 0x48, 0xcc, 0x5f, 0xcc, 0xf7, 0x5e,
  0x4a, 0xed, 0xef, 0xea, 0xfe, 0x16, 0xf4, 0x24, 0x73, 0xdf, 0x1d, 0xda,
  0x21, 0x37, 0xd9, 0x8c, 0x3e, 0x06, 0x23, 0x6e, 0x73, 0x7f, 0x88, 0x64,
  0x4e, 0x5a, 0x0d, 0x02, 0x5e, 0x24, 0x0f, 0x98, 0xf7, 0x57, 0x1e, 0x3d,
  0x2b, 0xc6, 0x38, 0xef, 0xd9, 0xd2, 0xcc, 0x0d, 0x34, 0xe6, 0xc4, 0xd9,
  0xfb, 0x23, 0xf5, 0xbc, 0xe9, 0xfd, 0x22, 0x24, 0xb3, 0x0a, 0xd3, 0x12,
  0xfe, 0xdd, 0xfe, 0x94, 0x0b, 0xa7, 0xed, 0xd2, 0x0d, 0x15, 0xe4, 0x04,
  0x9d, 0xf3, 0x81, 0x1f, 0xf5, 0x98, 0x2d, 0xf7, 0xae, 0xb1, 0xc1, 0x2c,
  0x46, 0xb3, 0x20, 0x14, 0x27, 0x13, 0x13, 0xe9, 0xfe, 0xd3, 0x40, 0x31,
  0xab, 0x06, 0xf2, 0xa9, 0x35, 0xd9, 0x43, 0x87, 0xfd, 0xc0, 0x81, 0xa7,
  0x11, 0x3b, 0xa3, 0x54, 0xea, 0xcd, 0x83, 0xf3, 0x0d, 0x22, 0xfc, 0xfb,
  0x55, 0xc5, 0xe9, 0x2c, 0xe5, 0x23, 0xba, 0xc2, 0x02, 0x09, 0x16, 0xed,
  0xe7, 0x40, 0x02, 0xf6, 0x3d, 0xf0, 0xdd, 0x44, 0x03, 0xf8, 0xbe, 0xb3,
  0x15, 0x50, 0x7f, 0x06, 0x0f, 0xd5, 0x49, 0xd7, 0xef, 0x39, 0xa7, 0xf8,
  0x1e, 0xfe, 0xff, 0xff, 0x04, 0x00, 0x00, 0x00, 0x50, 0x00, 0x00, 0x00,
  0x75, 0xfa, 0xff, 0xff, 0x64, 0x0c, 0x00, 0x00, 0xdc, 0xf7, 0xff, 0xff,
  0xe5, 0x11, 0x00, 0x00, 0xd0, 0x03, 0x00, 0x00, 0xcb, 0x02, 0x00, 0x00,
  0xbd, 0x06, 0x00, 0x00, 0x05, 0x05, 0x00, 0x00, 0x59, 0x15, 0x00, 0x00,
  0x55, 0x04, 0x00, 0x00, 0x19, 0xf7, 0xff, 0xff, 0xf5, 0x11, 0x00, 0x00,
  0xb1, 0xfc, 0xff, 0xff, 0x3b, 0x0e, 0x00, 0x00, 0x2c, 0x17, 0x00, 0x00,
  0xd7, 0x14, 0x00, 0x00, 0x07, 0xff, 0xff, 0xff, 0xa9, 0x09, 0x00, 0x00,
  0x4e, 0xf6, 0xff, 0xff, 0xe3, 0x19, 0x00, 0x00, 0x7a, 0xfe, 0xff, 0xff,
  0x04, 0x00, 0x00, 0x00, 0xb4, 0x00, 0x00, 0x00, 0x5f, 0x93, 0xf1, 0xf9,
  0x25, 0xb1, 0x86, 0x99, 0x81, 0x5f, 0xcc, 0x02, 0xe8, 0x23, 0xc9, 0x5e,
  0x84, 0xe0, 0xf8, 0xfb, 0xfe, 0xf9, 0xfa, 0x2b, 0x15, 0x08, 0xeb, 0xd1,
  0x81, 0x02, 0xf6, 0x2b, 0xf4, 0xcb, 0x27, 0xcd, 0x2a, 0xbc, 0xe6, 0x98,
  0xde, 0xe7, 0xf8, 0xcc, 0x02, 0x43, 0x05, 0xfd, 0xe8, 0xae, 0xfb, 0x81,
  0xe7, 0x09, 0xc1, 0xbc, 0x2d, 0xec, 0xe7, 0x33, 0xd7, 0x03, 0x3a, 0x21,
  0xda, 0x2c, 0xa3, 0xaf, 0x3c, 0xf6, 0xdf, 0xd0, 0x24, 0xa9, 0x81, 0x43,
  0xf6, 0xad, 0x45, 0x9d, 0xaa, 0x67, 0x18, 0x29, 0xe9, 0x19, 0x28, 0xdc,
  0xe7, 0x00, 0xf7, 0xf4, 0xf0, 0x81, 0x30, 0xeb, 0xce, 0x4f, 0x50, 0xc1,
  0x27, 0xed, 0xe7, 0x81, 0x49, 0x99, 0xe5, 0x59, 0xd6, 0x05, 0xda, 0x03,
  0xd8, 0x08, 0xd7, 0x90, 0x15, 0xd4, 0xec, 0x47, 0xec, 0x8e, 0xcb, 0x1b,
  0x86, 0x98, 0x4d, 0xd2, 0xd0, 0x81, 0xcd, 0x0c, 0xf2, 0x50, 0x3a, 0x21,
  0x29, 0x98, 0xd1, 0xb7, 0xd7, 0x9d, 0x24, 0x0d, 0x99, 0x05, 0xdb, 0x3c,
  0x44, 0xb0, 0x1a, 0x81, 0x31, 0x1f, 0xca, 0x17, 0xc0, 0xa2, 0xa1, 0x1d,
  0xbb, 0x21, 0xad, 0x14, 0x09, 0x04, 0xaf, 0x81, 0x18, 0xf9, 0x23, 0x02,
  0x0c, 0x0e, 0x31, 0x17, 0xe3, 0x06, 0xee, 0x49, 0x3a, 0xff, 0xff, 0xff,
  0x04, 0x00, 0x00, 0x00, 0x24, 0x00, 0x00, 0x00, 0x9a, 0xfd, 0xff, 0xff,
  0x3b, 0xff, 0xff, 0xff, 0xa6, 0x00, 0x00, 0x00, 0xb2, 0xfe, 0xff, 0xff,
  0xbb, 0xfd, 0xff, 0xff, 0x53, 0xff, 0xff, 0xff, 0xb1, 0x00, 0x00, 0x00,
  0x16, 0x00, 0x00, 0x00, 0x81, 0x03, 0x00, 0x00, 0x38, 0xff, 0xff, 0xff,
  0x3c, 0xff, 0xff, 0xff, 0x0f, 0x00, 0x00, 0x00, 0x4d, 0x4c, 0x49, 0x52,
  0x20, 0x43, 0x6f, 0x6e, 0x76, 0x65, 0x72, 0x74, 0x65, 0x64, 0x2e, 0x00,
  0x01, 0x00, 0x00, 0x00, 0x14, 0x00, 0x00, 0x00, 0x00, 0x00, 0x0e, 0x00,
  0x18, 0x00, 0x14, 0x00, 0x10, 0x00, 0x0c, 0x00, 0x08, 0x00, 0x04, 0x00,
  0x0e, 0x00, 0x00, 0x00, 0x14, 0x00, 0x00, 0x00, 0x1c, 0x00, 0x00, 0x00,
  0x28, 0x01, 0x00, 0x00, 0x2c, 0x01, 0x00, 0x00, 0x30, 0x01, 0x00, 0x00,
  0x04, 0x00, 0x00, 0x00, 0x6d, 0x61, 0x69, 0x6e, 0x00, 0x00, 0x00, 0x00,
  0x04, 0x00, 0x00, 0x00, 0xd0, 0x00, 0x00, 0x00, 0x88, 0x00, 0x00, 0x00,
  0x50, 0x00, 0x00, 0x00, 0x14, 0x00, 0x00, 0x00, 0x00, 0x00, 0x0e, 0x00,
  0x1a, 0x00, 0x14, 0x00, 0x10, 0x00, 0x0c, 0x00, 0x0b, 0x00, 0x04, 0x00,
  0x0e, 0x00, 0x00, 0x00, 0x1c, 0x00, 0x00, 0x00, 0x00, 0x00, 0x00, 0x09,
  0x1c, 0x00, 0x00, 0x00, 0x20, 0x00, 0x00, 0x00, 0x01, 0x00, 0x00, 0x00,
  0x00, 0x00, 0x06, 0x00, 0x08, 0x00, 0x04, 0x00, 0x06, 0x00, 0x00, 0x00,
  0x00, 0x00, 0x80, 0x3f, 0x01, 0x00, 0x00, 0x00, 0x0a, 0x00, 0x00, 0x00,
  0x01, 0x00, 0x00, 0x00, 0x09, 0x00, 0x00, 0x00, 0x96, 0xff, 0xff, 0xff,
  0x14, 0x00, 0x00, 0x00, 0x00, 0x00, 0x00, 0x08, 0x10, 0x00, 0x00, 0x00,
  0x14, 0x00, 0x00, 0x00, 0x04, 0x00, 0x04, 0x00, 0x04, 0x00, 0x00, 0x00,
  0x01, 0x00, 0x00, 0x00, 0x09, 0x00, 0x00, 0x00, 0x03, 0x00, 0x00, 0x00,
  0x08, 0x00, 0x00, 0x00, 0x02, 0x00, 0x00, 0x00, 0x01, 0x00, 0x00, 0x00,
  0xca, 0xff, 0xff, 0xff, 0x10, 0x00, 0x00, 0x00, 0x00, 0x00, 0x00, 0x08,
  0x10, 0x00, 0x00, 0x00, 0x14, 0x00, 0x00, 0x00, 0xba, 0xff, 0xff, 0xff,
  0x00, 0x00, 0x00, 0x01, 0x01, 0x00, 0x00, 0x00, 0x08, 0x00, 0x00, 0x00,
  0x03, 0x00, 0x00, 0x00, 0x07, 0x00, 0x00, 0x00, 0x04, 0x00, 0x00, 0x00,
  0x03, 0x00, 0x00, 0x00, 0x00, 0x00, 0x0e, 0x00, 0x16, 0x00, 0x00, 0x00,
  0x10, 0x00, 0x0c, 0x00, 0x0b, 0x00, 0x04, 0x00, 0x0e, 0x00, 0x00, 0x00,
  0x18, 0x00, 0x00, 0x00, 0x00, 0x00, 0x00, 0x08, 0x18, 0x00, 0x00, 0x00,
  0x1c, 0x00, 0x00, 0x00, 0x00, 0x00, 0x06, 0x00, 0x08, 0x00, 0x07, 0x00,
  0x06, 0x00, 0x00, 0x00, 0x00, 0x00, 0x00, 0x01, 0x01, 0x00, 0x00, 0x00,
  0x07, 0x00, 0x00, 0x00, 0x03, 0x00, 0x00, 0x00, 0x00, 0x00, 0x00, 0x00,
  0x06, 0x00, 0x00, 0x00, 0x05, 0x00, 0x00, 0x00, 0x01, 0x00, 0x00, 0x00,
  0x0a, 0x00, 0x00, 0x00, 0x01, 0x00, 0x00, 0x00, 0x00, 0x00, 0x00, 0x00,
  0x0b, 0x00, 0x00, 0x00, 0x70, 0x0b, 0x00, 0x00, 0x98, 0x0a, 0x00, 0x00,
  0xbc, 0x09, 0x00, 0x00, 0x78, 0x08, 0x00, 0x00, 0x2c, 0x07, 0x00, 0x00,
  0xf8, 0x04, 0x00, 0x00, 0xbc, 0x02, 0x00, 0x00, 0xf0, 0x01, 0x00, 0x00,
  0x24, 0x01, 0x00, 0x00, 0x80, 0x00, 0x00, 0x00, 0x04, 0x00, 0x00, 0x00,
  0xd2, 0xf4, 0xff, 0xff, 0x00, 0x00, 0x00, 0x01, 0x18, 0x00, 0x00, 0x00,
  0x20, 0x00, 0x00, 0x00, 0x3c, 0x00, 0x00, 0x00, 0x0b, 0x00, 0x00, 0x00,
  0x00, 0x00, 0x00, 0x09, 0x50, 0x00, 0x00, 0x00, 0x02, 0x00, 0x00, 0x00,
  0xff, 0xff, 0xff, 0xff, 0x09, 0x00, 0x00, 0x00, 0xbc, 0xf4, 0xff, 0xff,
  0x08, 0x00, 0x00, 0x00, 0x10, 0x00, 0x00, 0x00, 0x01, 0x00, 0x00, 0x00,
  0x80, 0xff, 0xff, 0xff, 0xff, 0xff, 0xff, 0xff, 0x01, 0x00, 0x00, 0x00,
  0x00, 0x00, 0x80, 0x3b, 0x1b, 0x00, 0x00, 0x00, 0x53, 0x74, 0x61, 0x74,
  0x65, 0x66, 0x75, 0x6c, 0x50, 0x61, 0x72, 0x74, 0x69, 0x74, 0x69, 0x6f,
  0x6e, 0x65, 0x64, 0x43, 0x61, 0x6c, 0x6c, 0x5f, 0x31, 0x3a, 0x30, 0x00,
  0x02, 0x00, 0x00, 0x00, 0x01, 0x00, 0x00, 0x00, 0x09, 0x00, 0x00, 0x00,
  0x4a, 0xf5, 0xff, 0xff, 0x00, 0x00, 0x00, 0x01, 0x18, 0x00, 0x00, 0x00,
  0x20, 0x00, 0x00, 0x00, 0x3c, 0x00, 0x00, 0x00, 0x0a, 0x00, 0x00, 0x00,
  0x00, 0x00, 0x00, 0x09, 0x78, 0x00, 0x00, 0x00, 0x02, 0x00, 0x00, 0x00,
  0xff, 0xff, 0xff, 0xff, 0x09, 0x00, 0x00, 0x00, 0x34, 0xf5, 0xff, 0xff,
  0x08, 0x00, 0x00, 0x00, 0x10, 0x00, 0x00, 0x00, 0x01, 0x00, 0x00, 0x00,
  0x22, 0x00, 0x00, 0x00, 0x00, 0x00, 0x00, 0x00, 0x01, 0x00, 0x00, 0x00,
  0x2c, 0xd6, 0x12, 0x3e, 0x42, 0x00, 0x00, 0x00, 0x67, 0x6c, 0x6f, 0x76,
  0x65, 0x5f, 0x66, 0x63, 0x6e, 0x6e, 0x5f, 0x34, 0x30, 0x5f, 0x32, 0x30,
  0x5f, 0x31, 0x2f, 0x6f, 0x75, 0x74, 0x70, 0x75, 0x74, 0x5f, 0x31, 0x2f,
  0x4d, 0x61, 0x74, 0x4d, 0x75, 0x6c, 0x3b, 0x67, 0x6c, 0x6f, 0x76, 0x65,
  0x5f, 0x66, 0x63, 0x6e, 0x6e, 0x5f, 0x34, 0x30, 0x5f, 0x32, 0x30, 0x5f,
  0x31, 0x2f, 0x6f, 0x75, 0x74, 0x70, 0x75, 0x74, 0x5f, 0x31, 0x2f, 0x41,
  0x64, 0x64, 0x00, 0x00, 0x02, 0x00, 0x00, 0x00, 0x01, 0x00, 0x00, 0x00,
  0x09, 0x00, 0x00, 0x00, 0xea, 0xf5, 0xff, 0xff, 0x00, 0x00, 0x00, 0x01,
  0x18, 0x00, 0x00, 0x00, 0x20, 0x00, 0x00, 0x00, 0x3c, 0x00, 0x00, 0x00,
  0x09, 0x00, 0x00, 0x00, 0x00, 0x00, 0x00, 0x09, 0xa0, 0x00, 0x00, 0x00,
  0x02, 0x00, 0x00, 0x00, 0xff, 0xff, 0xff, 0xff, 0x14, 0x00, 0x00, 0x00,
  0xd4, 0xf5, 0xff, 0xff, 0x08, 0x00, 0x00, 0x00, 0x10, 0x00, 0x00, 0x00,
  0x01, 0x00, 0x00, 0x00, 0x80, 0xff, 0xff, 0xff, 0xff, 0xff, 0xff, 0xff,
  0x01, 0x00, 0x00, 0x00, 0xfa, 0x99, 0x37, 0x3d, 0x69, 0x00, 0x00, 0x00,
  0x67, 0x6c, 0x6f, 0x76, 0x65, 0x5f, 0x66, 0x63, 0x6e, 0x6e, 0x5f, 0x34,
  0x30, 0x5f, 0x32, 0x30, 0x5f, 0x31, 0x2f, 0x64, 0x65, 0x6e, 0x73, 0x65,
  0x5f, 0x32, 0x30, 0x5f, 0x31, 0x2f, 0x4d, 0x61, 0x74, 0x4d, 0x75, 0x6c,
  0x3b, 0x67, 0x6c, 0x6f, 0x76, 0x65, 0x5f, 0x66, 0x63, 0x6e, 0x6e, 0x5f,
  0x34, 0x30, 0x5f, 0x32, 0x30, 0x5f, 0x31, 0x2f, 0x64, 0x65, 0x6e, 0x73,
  0x65, 0x5f, 0x32, 0x30, 0x5f, 0x31, 0x2f, 0x52, 0x65, 0x6c, 0x75, 0x3b,
  0x67, 0x6c, 0x6f, 0x76, 0x65, 0x5f, 0x66, 0x63, 0x6e, 0x6e, 0x5f, 0x34,
  0x30, 0x5f, 0x32, 0x30, 0x5f, 0x31, 0x2f, 0x64, 0x65, 0x6e, 0x73, 0x65,
  0x5f, 0x32, 0x30, 0x5f, 0x31, 0x2f, 0x41, 0x64, 0x64, 0x00, 0x00, 0x00,
  0x02, 0x00, 0x00, 0x00, 0x01, 0x00, 0x00, 0x00, 0x14, 0x00, 0x00, 0x00,
  0xb2, 0xf6, 0xff, 0xff, 0x00, 0x00, 0x00, 0x01, 0x18, 0x00, 0x00, 0x00,
  0x20, 0x00, 0x00, 0x00, 0x3c, 0x00, 0x00, 0x00, 0x08, 0x00, 0x00, 0x00,
  0x00, 0x00, 0x00, 0x09, 0xa0, 0x00, 0x00, 0x00, 0x02, 0x00, 0x00, 0x00,
  0xff, 0xff, 0xff, 0xff, 0x28, 0x00, 0x00, 0x00, 0x9c, 0xf6, 0xff, 0xff,
  0x08, 0x00, 0x00, 0x00, 0x10, 0x00, 0x00, 0x00, 0x01, 0x00, 0x00, 0x00,
  0x80, 0xff, 0xff, 0xff, 0xff, 0xff, 0xff, 0xff, 0x01, 0x00, 0x00, 0x00,
  0x87, 0x37, 0x26, 0x3c, 0x69, 0x00, 0x00, 0x00, 0x67, 0x6c, 0x6f, 0x76,
  0x65, 0x5f, 0x66, 0x63, 0x6e, 0x6e, 0x5f, 0x34, 0x30, 0x5f, 0x32, 0x30,
  0x5f, 0x31, 0x2f, 0x64, 0x65, 0x6e, 0x73, 0x65, 0x5f, 0x34, 0x30, 0x5f,
  0x31, 0x2f, 0x4d, 0x61, 0x74, 0x4d, 0x75, 0x6c, 0x3b, 0x67, 0x6c, 0x6f,
  0x76, 0x65, 0x5f, 0x66, 0x63, 0x6e, 0x6e, 0x5f, 0x34, 0x30, 0x5f, 0x32,
  0x30, 0x5f, 0x31, 0x2f, 0x64, 0x65, 0x6e, 0x73, 0x65, 0x5f, 0x34, 0x30,
  0x5f, 0x31, 0x2f, 0x52, 0x65, 0x6c, 0x75, 0x3b, 0x67, 0x6c, 0x6f, 0x76,
  0x65, 0x5f, 0x66, 0x63, 0x6e, 0x6e, 0x5f, 0x34, 0x30, 0x5f, 0x32, 0x30,
  0x5f, 0x31, 0x2f, 0x64, 0x65, 0x6e, 0x73, 0x65, 0x5f, 0x34, 0x30, 0x5f,
  0x31, 0x2f, 0x41, 0x64, 0x64, 0x00, 0x00, 0x00, 0x02, 0x00, 0x00, 0x00,
  0x01, 0x00, 0x00, 0x00, 0x28, 0x00, 0x00, 0x00, 0x4e, 0xf8, 0xff, 0xff,
  0x00, 0x00, 0x00, 0x01, 0x14, 0x00, 0x00, 0x00, 0x08, 0x02, 0x00, 0x00,
  0x07, 0x00, 0x00, 0x00, 0x00, 0x00, 0x00, 0x09, 0x14, 0x02, 0x00, 0x00,
  0x54, 0xf7, 0xff, 0xff, 0x08, 0x00, 0x00, 0x00, 0x4c, 0x01, 0x00, 0x00,
  0x28, 0x00, 0x00, 0x00, 0x00, 0x00, 0x00, 0x00, 0x00, 0x00, 0x00, 0x00,
  0x00, 0x00, 0x00, 0x00, 0x00, 0x00, 0x00, 0x00, 0x00, 0x00, 0x00, 0x00,
  0x00, 0x00, 0x00, 0x00, 0x00, 0x00, 0x00, 0x00, 0x00, 0x00, 0x00, 0x00,
  0x00, 0x00, 0x00, 0x00, 0x00, 0x00, 0x00, 0x00, 0x00, 0x00, 0x00, 0x00,
  0x00, 0x00, 0x00, 0x00, 0x00, 0x00, 0x00, 0x00, 0x00, 0x00, 0x00, 0x00,
  0x00, 0x00, 0x00, 0x00, 0x00, 0x00, 0x00, 0x00, 0x00, 0x00, 0x00, 0x00,
  0x00, 0x00, 0x00, 0x00, 0x00, 0x00, 0x00, 0x00, 0x00, 0x00, 0x00, 0x00,
  0x00, 0x00, 0x00, 0x00, 0x00, 0x00, 0x00, 0x00, 0x00, 0x00, 0x00, 0x00,
  0x00, 0x00, 0x00, 0x00, 0x00, 0x00, 0x00, 0x00, 0x00, 0x00, 0x00, 0x00,
  0x00, 0x00, 0x00, 0x00, 0x00, 0x00, 0x00, 0x00, 0x00, 0x00, 0x00, 0x00,
  0x00, 0x00, 0x00, 0x00, 0x00, 0x00, 0x00, 0x00, 0x00, 0x00, 0x00, 0x00,
  0x00, 0x00, 0x00, 0x00, 0x00, 0x00, 0x00, 0x00, 0x00, 0x00, 0x00, 0x00,
  0x00, 0x00, 0x00, 0x00, 0x00, 0x00, 0x00, 0x00, 0x00, 0x00, 0x00, 0x00,
  0x00, 0x00, 0x00, 0x00, 0x00, 0x00, 0x00, 0x00, 0x00, 0x00, 0x00, 0x00,
  0x00, 0x00, 0x00, 0x00, 0x00, 0x00, 0x00, 0x00, 0x00, 0x00, 0x00, 0x00,
  0x00, 0x00, 0x00, 0x00, 0x00, 0x00, 0x00, 0x00, 0x00, 0x00, 0x00, 0x00,
  0x00, 0x00, 0x00, 0x00, 0x00, 0x00, 0x00, 0x00, 0x00, 0x00, 0x00, 0x00,
  0x00, 0x00, 0x00, 0x00, 0x00, 0x00, 0x00, 0x00, 0x00, 0x00, 0x00, 0x00,
  0x00, 0x00, 0x00, 0x00, 0x00, 0x00, 0x00, 0x00, 0x00, 0x00, 0x00, 0x00,
  0x00, 0x00, 0x00, 0x00, 0x00, 0x00, 0x00, 0x00, 0x00, 0x00, 0x00, 0x00,
  0x00, 0x00, 0x00, 0x00, 0x00, 0x00, 0x00, 0x00, 0x00, 0x00, 0x00, 0x00,
  0x00, 0x00, 0x00, 0x00, 0x00, 0x00, 0x00, 0x00, 0x00, 0x00, 0x00, 0x00,
  0x00, 0x00, 0x00, 0x00, 0x00, 0x00, 0x00, 0x00, 0x00, 0x00, 0x00, 0x00,
  0x00, 0x00, 0x00, 0x00, 0x00, 0x00, 0x00, 0x00, 0x00, 0x00, 0x00, 0x00,
  0x00, 0x00, 0x00, 0x00, 0x00, 0x00, 0x00, 0x00, 0x00, 0x00, 0x00, 0x00,
  0x00, 0x00, 0x00, 0x00, 0x00, 0x00, 0x00, 0x00, 0x00, 0x00, 0x00, 0x00,
  0x00, 0x00, 0x00, 0x00, 0x00, 0x00, 0x00, 0x00, 0x00, 0x00, 0x00, 0x00,
  0x00, 0x00, 0x00, 0x00, 0x28, 0x00, 0x00, 0x00, 0xea, 0x87, 0xca, 0x3b,
  0xe4, 0x98, 0x7d, 0x3b, 0x4b, 0x03, 0x71, 0x3b, 0x59, 0x4e, 0xdc, 0x3b,
  0xa1, 0x2a, 0xb1, 0x3b, 0x2f, 0x7b, 0x1e, 0x3b, 0x9e, 0xda, 0x8c, 0x3b,
  0xb3, 0x58, 0x86, 0x3b, 0x95, 0x00, 0xc5, 0x3b, 0x1e, 0xc3, 0x81, 0x3b,
  0xf1, 0xce, 0x00, 0x3c, 0x5a, 0xd8, 0xc1, 0x3b, 0x2b, 0xd3, 0xd8, 0x3b,
  0xc1, 0xaf, 0x96, 0x3b, 0xf7, 0x31, 0x88, 0x3b, 0x2f, 0xf7, 0xa1, 0x3b,
  0x8e, 0xc2, 0xc0, 0x3b, 0x2a, 0x88, 0x92, 0x3b, 0xf5, 0xc8, 0xc9, 0x3b,
  0xf3, 0xe1, 0xba, 0x3b, 0x97, 0x61, 0xbe, 0x3b, 0x13, 0x46, 0xb3, 0x3b,
  0x7c, 0x21, 0xc2, 0x3b, 0x3a, 0x81, 0xa1, 0x3b, 0xe6, 0x85, 0xb8, 0x3b,
  0x72, 0x55, 0xcf, 0x3b, 0x60, 0xed, 0x52, 0x3b, 0x19, 0x3f, 0xbd, 0x3a,
  0xeb, 0xe9, 0xa3, 0x3b, 0x45, 0x5a, 0xae, 0x3b, 0x4e, 0xdf, 0x96, 0x3b,
  0xfd, 0xff, 0xbf, 0x3b, 0x10, 0x8b, 0x7b, 0x3b, 0x6a, 0x28, 0xa9, 0x3b,
  0x48, 0xe9, 0xa3, 0x3b, 0xb1, 0xff, 0xb9, 0x3b, 0x71, 0xc2, 0x50, 0x3b,
  0x05, 0x5e, 0xab, 0x3b, 0xa4, 0x10, 0x37, 0x3b, 0xaa, 0x9e, 0x8f, 0x3b,
  0x12, 0x00, 0x00, 0x00, 0x74, 0x66, 0x6c, 0x2e, 0x70, 0x73, 0x65, 0x75,
  0x64, 0x6f, 0x5f, 0x71, 0x63, 0x6f, 0x6e, 0x73, 0x74, 0x35, 0x00, 0x00,
  0x02, 0x00, 0x00, 0x00, 0x28, 0x00, 0x00, 0x00, 0x02, 0x00, 0x00, 0x00,
  0x86, 0xfa, 0xff, 0xff, 0x00, 0x00, 0x00, 0x01, 0x14, 0x00, 0x00, 0x00,
  0x04, 0x02, 0x00, 0x00, 0x06, 0x00, 0x00, 0x00, 0x00, 0x00, 0x00, 0x02,
  0x10, 0x02, 0x00, 0x00, 0x8c, 0xf9, 0xff, 0xff, 0x08, 0x00, 0x00, 0x00,
  0x48, 0x01, 0x00, 0x00, 0x28, 0x00, 0x00, 0x00, 0x00, 0x00, 0x00, 0x00,
  0x00, 0x00, 0x00, 0x00, 0x00, 0x00, 0x00, 0x00, 0x00, 0x00, 0x00, 0x00,
  0x00, 0x00, 0x00, 0x00, 0x00, 0x00, 0x00, 0x00, 0x00, 0x00, 0x00, 0x00,
  0x00, 0x00, 0x00, 0x00, 0x00, 0x00, 0x00, 0x00, 0x00, 0x00, 0x00, 0x00,
  0x00, 0x00, 0x00, 0x00, 0x00, 0x00, 0x00, 0x00, 0x00, 0x00, 0x00, 0x00,
  0x00, 0x00, 0x00, 0x00, 0x00, 0x00, 0x00, 0x00, 0x00, 0x00, 0x00, 0x00,
  0x00, 0x00, 0x00, 0x00, 0x00, 0x00, 0x00, 0x00, 0x00, 0x00, 0x00, 0x00,
  0x00, 0x00, 0x00, 0x00, 0x00, 0x00, 0x00, 0x00, 0x00, 0x00, 0x00, 0x00,
  0x00, 0x00, 0x00, 0x00, 0x00, 0x00, 0x00, 0x00, 0x00, 0x00, 0x00, 0x00,
  0x00, 0x00, 0x00, 0x00, 0x00, 0x00, 0x00, 0x00, 0x00, 0x00, 0x00, 0x00,
  0x00, 0x00, 0x00, 0x00, 0x00, 0x00, 0x00, 0x00, 0x00, 0x00, 0x00, 0x00,
  0x00, 0x00, 0x00, 0x00, 0x00, 0x00, 0x00, 0x00, 0x00, 0x00, 0x00, 0x00,
  0x00, 0x00, 0x00, 0x00, 0x00, 0x00, 0x00, 0x00, 0x00, 0x00, 0x00, 0x00,
  0x00, 0x00, 0x00, 0x00, 0x00, 0x00, 0x00, 0x00, 0x00, 0x00, 0x00, 0x00,
  0x00, 0x00, 0x00, 0x00, 0x00, 0x00, 0x00, 0x00, 0x00, 0x00, 0x00, 0x00,
  0x00, 0x00, 0x00, 0x00, 0x00, 0x00, 0x00, 0x00, 0x00, 0x00, 0x00, 0x00,
  0x00, 0x00, 0x00, 0x00, 0x00, 0x00, 0x00, 0x00, 0x00, 0x00, 0x00, 0x00,
  0x00, 0x00, 0x00, 0x00, 0x00, 0x00, 0x00, 0x00, 0x00, 0x00, 0x00, 0x00,
  0x00, 0x00, 0x00, 0x00, 0x00, 0x00, 0x00, 0x00, 0x00, 0x00, 0x00, 0x00,
  0x00, 0x00, 0x00, 0x00, 0x00, 0x00, 0x00, 0x00, 0x00, 0x00, 0x00, 0x00,
  0x00, 0x00, 0x00, 0x00, 0x00, 0x00, 0x00, 0x00, 0x00, 0x00, 0x00, 0x00,
  0x00, 0x00, 0x00, 0x00, 0x00, 0x00, 0x00, 0x00, 0x00, 0x00, 0x00, 0x00,
  0x00, 0x00, 0x00, 0x00, 0x00, 0x00, 0x00, 0x00, 0x00, 0x00, 0x00, 0x00,
  0x00, 0x00, 0x00, 0x00, 0x00, 0x00, 0x00, 0x00, 0x00, 0x00, 0x00, 0x00,
  0x00, 0x00, 0x00, 0x00, 0x00, 0x00, 0x00, 0x00, 0x00, 0x00, 0x00, 0x00,
  0x00, 0x00, 0x00, 0x00, 0x00, 0x00, 0x00, 0x00, 0x00, 0x00, 0x00, 0x00,
  0x00, 0x00, 0x00, 0x00, 0x00, 0x00, 0x00, 0x00, 0x00, 0x00, 0x00, 0x00,
  0x00, 0x00, 0x00, 0x00, 0x28, 0x00, 0x00, 0x00, 0x9a, 0xe5, 0x99, 0x38,
  0x58, 0xb3, 0x40, 0x38, 0x5a, 0x23, 0x37, 0x38, 0x55, 0x67, 0xa7, 0x38,
  0x8f, 0x9f, 0x86, 0x38, 0x89, 0xd9, 0xf0, 0x37, 0x9f, 0x0f, 0x56, 0x38,
  0xdd, 0x2b, 0x4c, 0x38, 0x22, 0xb2, 0x95, 0x38, 0x53, 0x34, 0x45, 0x38,
  0x3e, 0xc1, 0xc3, 0x38, 0xfc, 0x4b, 0x93, 0x38, 0x27, 0xc2, 0xa4, 0x38,
  0x01, 0x01, 0x65, 0x38, 0x1a, 0xfb, 0x4e, 0x38, 0x24, 0x25, 0x76, 0x38,
  0xe5, 0x78, 0x92, 0x38, 0xa1, 0xb0, 0x5e, 0x38, 0x7f, 0x54, 0x99, 0x38,
  0x98, 0x01, 0x8e, 0x38, 0x2a, 0xaa, 0x90, 0x38, 0x77, 0x39, 0x88, 0x38,
  0x8e, 0x83, 0x93, 0x38, 0xe0, 0x71, 0x75, 0x38, 0x98, 0x36, 0x8c, 0x38,
  0xe2, 0x8b, 0x9d, 0x38, 0xe8, 0x46, 0x20, 0x38, 0x6d, 0xcd, 0x8f, 0x37,
  0x16, 0x1b, 0x79, 0x38, 0x2e, 0x7c, 0x84, 0x38, 0x45, 0x49, 0x65, 0x38,
  0x0d, 0xe5, 0x91, 0x38, 0xc9, 0x23, 0x3f, 0x38, 0xaa, 0x89, 0x80, 0x38,
  0x1e, 0x1a, 0x79, 0x38, 0xab, 0x55, 0x8d, 0x38, 0x3b, 0xa1, 0x1e, 0x38,
  0x73, 0x37, 0x82, 0x38, 0xf8, 0x1a, 0x0b, 0x38, 0xaa, 0x43, 0x5a, 0x38,
  0x12, 0x00, 0x00, 0x00, 0x74, 0x66, 0x6c, 0x2e, 0x70, 0x73, 0x65, 0x75,
  0x64, 0x6f, 0x5f, 0x71, 0x63, 0x6f, 0x6e, 0x73, 0x74, 0x34, 0x00, 0x00,
  0x01, 0x00, 0x00, 0x00, 0x28, 0x00, 0x00, 0x00, 0xb6, 0xfc, 0xff, 0xff,
  0x00, 0x00, 0x00, 0x01, 0x14, 0x00, 0x00, 0x00, 0x18, 0x01, 0x00, 0x00,
  0x05, 0x00, 0x00, 0x00, 0x00, 0x00, 0x00, 0x09, 0x24, 0x01, 0x00, 0x00,
  0xbc, 0xfb, 0xff, 0xff, 0x08, 0x00, 0x00, 0x00, 0xac, 0x00, 0x00, 0x00,
  0x14, 0x00, 0x00, 0x00, 0x00, 0x00, 0x00, 0x00, 0x00, 0x00, 0x00, 0x00,
  0x00, 0x00, 0x00, 0x00, 0x00, 0x00, 0x00, 0x00, 0x00, 0x00, 0x00, 0x00,
  0x00, 0x00, 0x00, 0x00, 0x00, 0x00, 0x00, 0x00, 0x00, 0x00, 0x00, 0x00,
  0x00, 0x00, 0x00, 0x00, 0x00, 0x00, 0x00, 0x00, 0x00, 0x00, 0x00, 0x00,
  0x00, 0x00, 0x00, 0x00, 0x00, 0x00, 0x00, 0x00, 0x00, 0x00, 0x00, 0x00,
  0x00, 0x00, 0x00, 0x00, 0x00, 0x00, 0x00, 0x00, 0x00, 0x00, 0x00, 0x00,
  0x00, 0x00, 0x00, 0x00, 0x00, 0x00, 0x00, 0x00, 0x00, 0x00, 0x00, 0x00,
  0x00, 0x00, 0x00, 0x00, 0x00, 0x00, 0x00, 0x00, 0x00, 0x00, 0x00, 0x00,
  0x00, 0x00, 0x00, 0x00, 0x00, 0x00, 0x00, 0x00, 0x00, 0x00, 0x00, 0x00,
  0x00, 0x00, 0x00, 0x00, 0x00, 0x00, 0x00, 0x00, 0x00, 0x00, 0x00, 0x00,
  0x00, 0x00, 0x00, 0x00, 0x00, 0x00, 0x00, 0x00, 0x00, 0x00, 0x00, 0x00,
  0x00, 0x00, 0x00, 0x00, 0x00, 0x00, 0x00, 0x00, 0x00, 0x00, 0x00, 0x00,
  0x00, 0x00, 0x00, 0x00, 0x00, 0x00, 0x00, 0x00, 0x00, 0x00, 0x00, 0x00,
  0x00, 0x00, 0x00, 0x00, 0x00, 0x00, 0x00, 0x00, 0x00, 0x00, 0x00, 0x00,
  0x14, 0x00, 0x00, 0x00, 0x4a, 0xdd, 0xec, 0x3b, 0x5d, 0xbf, 0xd3, 0x3b,
  0x46, 0x9b, 0x91, 0x3b, 0x60, 0xa4, 0x9c, 0x3b, 0x57, 0x94, 0xd1, 0x3b,
  0xb1, 0xce, 0xaf, 0x3b, 0x80, 0xa4, 0xfe, 0x3b, 0x42, 0x13, 0x01, 0x3c,
  0xaa, 0x22, 0xfc, 0x3b, 0x14, 0x2a, 0x1c, 0x3c, 0x07, 0x90, 0x1a, 0x3a,
  0xad, 0x90, 0x9e, 0x3b, 0x70, 0x52, 0x21, 0x3b, 0xbc, 0xf3, 0x00, 0x3c,
  0xbd, 0x8e, 0xf8, 0x3b, 0x67, 0xf2, 0xd5, 0x3b, 0x39, 0x54, 0xb2, 0x3b,
  0x22, 0xfa, 0x0b, 0x3c, 0x2f, 0xf7, 0xcf, 0x3b, 0xbc, 0xad, 0x0f, 0x3c,
  0x12, 0x00, 0x00, 0x00, 0x74, 0x66, 0x6c, 0x2e, 0x70, 0x73, 0x65, 0x75,
  0x64, 0x6f, 0x5f, 0x71, 0x63, 0x6f, 0x6e, 0x73, 0x74, 0x33, 0x00, 0x00,
  0x02, 0x00, 0x00, 0x00, 0x14, 0x00, 0x00, 0x00, 0x28, 0x00, 0x00, 0x00,
  0xfe, 0xfd, 0xff, 0xff, 0x00, 0x00, 0x00, 0x01, 0x14, 0x00, 0x00, 0x00,
  0x14, 0x01, 0x00, 0x00, 0x04, 0x00, 0x00, 0x00, 0x00, 0x00, 0x00, 0x02,
  0x20, 0x01, 0x00, 0x00, 0x04, 0xfd, 0xff, 0xff, 0x08, 0x00, 0x00, 0x00,
  0xa8, 0x00, 0x00, 0x00, 0x14, 0x00, 0x00, 0x00, 0x00, 0x00, 0x00, 0x00,
  0x00, 0x00, 0x00, 0x00, 0x00, 0x00, 0x00, 0x00, 0x00, 0x00, 0x00, 0x00,
  0x00, 0x00, 0x00, 0x00, 0x00, 0x00, 0x00, 0x00, 0x00, 0x00, 0x00, 0x00,
  0x00, 0x00, 0x00, 0x00, 0x00, 0x00, 0x00, 0x00, 0x00, 0x00, 0x00, 0x00,
  0x00, 0x00, 0x00, 0x00, 0x00, 0x00, 0x00, 0x00, 0x00, 0x00, 0x00, 0x00,
  0x00, 0x00, 0x00, 0x00, 0x00, 0x00, 0x00, 0x00, 0x00, 0x00, 0x00, 0x00,
  0x00, 0x00, 0x00, 0x00, 0x00, 0x00, 0x00, 0x00, 0x00, 0x00, 0x00, 0x00,
  0x00, 0x00, 0x00, 0x00, 0x00, 0x00, 0x00, 0x00, 0x00, 0x00, 0x00, 0x00,
  0x00, 0x00, 0x00, 0x00, 0x00, 0x00, 0x00, 0x00, 0x00, 0x00, 0x00, 0x00,
  0x00, 0x00, 0x00, 0x00, 0x00, 0x00, 0x00, 0x00, 0x00, 0x00, 0x00, 0x00,
  0x00, 0x00, 0x00, 0x00, 0x00, 0x00, 0x00, 0x00, 0x00, 0x00, 0x00, 0x00,
  0x00, 0x00, 0x00, 0x00, 0x00, 0x00, 0x00, 0x00, 0x00, 0x00, 0x00, 0x00,
  0x00, 0x00, 0x00, 0x00, 0x00, 0x00, 0x00, 0x00, 0x00, 0x00, 0x00, 0x00,
  0x00, 0x00, 0x00, 0x00, 0x00, 0x00, 0x00, 0x00, 0x00, 0x00, 0x00, 0x00,
  0x14, 0x00, 0x00, 0x00, 0xde, 0xca, 0x99, 0x38, 0x04, 0x7c, 0x89, 0x38,
  0x89, 0x14, 0x3d, 0x38, 0x20, 0x69, 0x4b, 0x38, 0xa6, 0x13, 0x88, 0x38,
  0x52, 0x4c, 0x64, 0x38, 0xe7, 0x55, 0xa5, 0x38, 0xf8, 0x9c, 0xa7, 0x38,
  0x2b, 0xb5, 0xa3, 0x38, 0x51, 0xca, 0xca, 0x38, 0xd6, 0xb5, 0xc8, 0x36,
  0x6a, 0xe8, 0x4d, 0x38, 0xe5, 0x7c, 0xd1, 0x37, 0x09, 0x74, 0xa7, 0x38,
  0x78, 0x62, 0xa1, 0x38, 0x97, 0xe9, 0x8a, 0x38, 0x96, 0x92, 0x67, 0x38,
  0x1d, 0xc5, 0xb5, 0x38, 0x64, 0x07, 0x87, 0x38, 0xa4, 0x93, 0xba, 0x38,
  0x12, 0x00, 0x00, 0x00, 0x74, 0x66, 0x6c, 0x2e, 0x70, 0x73, 0x65, 0x75,
  0x64, 0x6f, 0x5f, 0x71, 0x63, 0x6f, 0x6e, 0x73, 0x74, 0x32, 0x00, 0x00,
  0x01, 0x00, 0x00, 0x00, 0x14, 0x00, 0x00, 0x00, 0x3e, 0xff, 0xff, 0xff,
  0x00, 0x00, 0x00, 0x01, 0x14, 0x00, 0x00, 0x00, 0x90, 0x00, 0x00, 0x00,
  0x03, 0x00, 0x00, 0x00, 0x00, 0x00, 0x00, 0x09, 0x9c, 0x00, 0x00, 0x00,
  0x44, 0xfe, 0xff, 0xff, 0x08, 0x00, 0x00, 0x00, 0x50, 0x00, 0x00, 0x00,
  0x09, 0x00, 0x00, 0x00, 0x00, 0x00, 0x00, 0x00, 0x00, 0x00, 0x00, 0x00,
  0x00, 0x00, 0x00, 0x00, 0x00, 0x00, 0x00, 0x00, 0x00, 0x00, 0x00, 0x00,
  0x00, 0x00, 0x00, 0x00, 0x00, 0x00, 0x00, 0x00, 0x00, 0x00, 0x00, 0x00,
  0x00, 0x00, 0x00, 0x00, 0x00, 0x00, 0x00, 0x00, 0x00, 0x00, 0x00, 0x00,
  0x00, 0x00, 0x00, 0x00, 0x00, 0x00, 0x00, 0x00, 0x00, 0x00, 0x00, 0x00,
  0x00, 0x00, 0x00, 0x00, 0x00, 0x00, 0x00, 0x00, 0x00, 0x00, 0x00, 0x00,
  0x00, 0x00, 0x00, 0x00, 0x09, 0x00, 0x00, 0x00, 0xf5, 0x50, 0xca, 0x3b,
  0x26, 0x97, 0x30, 0x3c, 0xfc, 0x69, 0x20, 0x3c, 0x32, 0x3a, 0x32, 0x3c,
  0x2e, 0x43, 0x03, 0x3c, 0xb6, 0x23, 0x02, 0x3c, 0x26, 0x85, 0xf3, 0x3b,
  0x36, 0x0c, 0x11, 0x3c, 0xe2, 0xff, 0x23, 0x3c, 0x12, 0x00, 0x00, 0x00,
  0x74, 0x66, 0x6c, 0x2e, 0x70, 0x73, 0x65, 0x75, 0x64, 0x6f, 0x5f, 0x71,
  0x63, 0x6f, 0x6e, 0x73, 0x74, 0x31, 0x00, 0x00, 0x02, 0x00, 0x00, 0x00,
  0x09, 0x00, 0x00, 0x00, 0x14, 0x00, 0x00, 0x00, 0x00, 0x00, 0x16, 0x00,
  0x1c, 0x00, 0x18, 0x00, 0x17, 0x00, 0x10, 0x00, 0x0c, 0x00, 0x08, 0x00,
  0x00, 0x00, 0x00, 0x00, 0x00, 0x00, 0x07, 0x00, 0x16, 0x00, 0x00, 0x00,
  0x00, 0x00, 0x00, 0x01, 0x14, 0x00, 0x00, 0x00, 0x90, 0x00, 0x00, 0x00,
  0x02, 0x00, 0x00, 0x00, 0x00, 0x00, 0x00, 0x02, 0x9c, 0x00, 0x00, 0x00,
  0x1c, 0xff, 0xff, 0xff, 0x08, 0x00, 0x00, 0x00, 0x50, 0x00, 0x00, 0x00,
  0x09, 0x00, 0x00, 0x00, 0x00, 0x00, 0x00, 0x00, 0x00, 0x00, 0x00, 0x00,
  0x00, 0x00, 0x00, 0x00, 0x00, 0x00, 0x00, 0x00, 0x00, 0x00, 0x00, 0x00,
  0x00, 0x00, 0x00, 0x00, 0x00, 0x00, 0x00, 0x00, 0x00, 0x00, 0x00, 0x00,
  0x00, 0x00, 0x00, 0x00, 0x00, 0x00, 0x00, 0x00, 0x00, 0x00, 0x00, 0x00,
  0x00, 0x00, 0x00, 0x00, 0x00, 0x00, 0x00, 0x00, 0x00, 0x00, 0x00, 0x00,
  0x00, 0x00, 0x00, 0x00, 0x00, 0x00, 0x00, 0x00, 0x00, 0x00, 0x00, 0x00,
  0x00, 0x00, 0x00, 0x00, 0x09, 0x00, 0x00, 0x00, 0x8f, 0x19, 0x91, 0x39,
  0x86, 0x4c, 0xfd, 0x39, 0x7e, 0x18, 0xe6, 0x39, 0x99, 0xa5, 0xff, 0x39,
  0xf2, 0x47, 0xbc, 0x39, 0x9b, 0xab, 0xba, 0x39, 0xa7, 0xa6, 0xae, 0x39,
  0xf1, 0x0d, 0xd0, 0x39, 0x1d, 0x3d, 0xeb, 0x39, 0x11, 0x00, 0x00, 0x00,
  0x74, 0x66, 0x6c, 0x2e, 0x70, 0x73, 0x65, 0x75, 0x64, 0x6f, 0x5f, 0x71,
  0x63, 0x6f, 0x6e, 0x73, 0x74, 0x00, 0x00, 0x00, 0x01, 0x00, 0x00, 0x00,
  0x09, 0x00, 0x00, 0x00, 0x00, 0x00, 0x16, 0x00, 0x20, 0x00, 0x1c, 0x00,
  0x1b, 0x00, 0x14, 0x00, 0x10, 0x00, 0x0c, 0x00, 0x00, 0x00, 0x00, 0x00,
  0x08, 0x00, 0x07, 0x00, 0x16, 0x00, 0x00, 0x00, 0x00, 0x00, 0x00, 0x01,
  0x18, 0x00, 0x00, 0x00, 0x2c, 0x00, 0x00, 0x00, 0x48, 0x00, 0x00, 0x00,
  0x01, 0x00, 0x00, 0x00, 0x00, 0x00, 0x00, 0x09, 0x58, 0x00, 0x00, 0x00,
  0x02, 0x00, 0x00, 0x00, 0xff, 0xff, 0xff, 0xff, 0x02, 0x00, 0x00, 0x00,
  0x0c, 0x00, 0x0c, 0x00, 0x00, 0x00, 0x00, 0x00, 0x08, 0x00, 0x04, 0x00,
  0x0c, 0x00, 0x00, 0x00, 0x08, 0x00, 0x00, 0x00, 0x10, 0x00, 0x00, 0x00,
  0x01, 0x00, 0x00, 0x00, 0xf4, 0xff, 0xff, 0xff, 0xff, 0xff, 0xff, 0xff,
  0x01, 0x00, 0x00, 0x00, 0xbf, 0x86, 0x42, 0x3c, 0x17, 0x00, 0x00, 0x00,
  0x73, 0x65, 0x72, 0x76, 0x69, 0x6e, 0x67, 0x5f, 0x64, 0x65, 0x66, 0x61,
  0x75, 0x6c, 0x74, 0x5f, 0x69, 0x6e, 0x70, 0x75, 0x74, 0x3a, 0x30, 0x00,
  0x02, 0x00, 0x00, 0x00, 0x01, 0x00, 0x00, 0x00, 0x02, 0x00, 0x00, 0x00,
  0x02, 0x00, 0x00, 0x00, 0x24, 0x00, 0x00, 0x00, 0x04, 0x00, 0x00, 0x00,
  0xf0, 0xff, 0xff, 0xff, 0x19, 0x00, 0x00, 0x00, 0x02, 0x00, 0x00, 0x00,
  0x00, 0x00, 0x00, 0x19, 0x0c, 0x00, 0x10, 0x00, 0x0f, 0x00, 0x00, 0x00,
  0x08, 0x00, 0x04, 0x00, 0x0c, 0x00, 0x00, 0x00, 0x09, 0x00, 0x00, 0x00,
  0x04, 0x00, 0x00, 0x00, 0x00, 0x00, 0x00, 0x09
};
const unsigned int g_glove_model_len = 5456;
