#pragma once
#include <Arduino.h>

alignas(16) const unsigned char g_glove_model[] = {
  0x1c, 0x00, 0x00, 0x00, 0x54, 0x46, 0x4c, 0x33, 0x14, 0x00, 0x20, 0x00,
  0x1c, 0x00, 0x18, 0x00, 0x14, 0x00, 0x10, 0x00, 0x0c, 0x00, 0x00, 0x00,
  0x08, 0x00, 0x04, 0x00, 0x14, 0x00, 0x00, 0x00, 0x1c, 0x00, 0x00, 0x00,
  0x90, 0x00, 0x00, 0x00, 0x10, 0x01, 0x00, 0x00, 0x88, 0x07, 0x00, 0x00,
  0x98, 0x07, 0x00, 0x00, 0xe4, 0x14, 0x00, 0x00, 0x03, 0x00, 0x00, 0x00,
  0x01, 0x00, 0x00, 0x00, 0x10, 0x00, 0x00, 0x00, 0x00, 0x00, 0x0a, 0x00,
  0x10, 0x00, 0x0c, 0x00, 0x08, 0x00, 0x04, 0x00, 0x0a, 0x00, 0x00, 0x00,
  0x0c, 0x00, 0x00, 0x00, 0x1c, 0x00, 0x00, 0x00, 0x3c, 0x00, 0x00, 0x00,
  0x0f, 0x00, 0x00, 0x00, 0x73, 0x65, 0x72, 0x76, 0x69, 0x6e, 0x67, 0x5f,
  0x64, 0x65, 0x66, 0x61, 0x75, 0x6c, 0x74, 0x00, 0x01, 0x00, 0x00, 0x00,
  0x04, 0x00, 0x00, 0x00, 0x70, 0xff, 0xff, 0xff, 0x0a, 0x00, 0x00, 0x00,
  0x04, 0x00, 0x00, 0x00, 0x08, 0x00, 0x00, 0x00, 0x6f, 0x75, 0x74, 0x70,
  0x75, 0x74, 0x5f, 0x30, 0x00, 0x00, 0x00, 0x00, 0x01, 0x00, 0x00, 0x00,
  0x04, 0x00, 0x00, 0x00, 0x5e, 0xf8, 0xff, 0xff, 0x04, 0x00, 0x00, 0x00,
  0x05, 0x00, 0x00, 0x00, 0x69, 0x6e, 0x70, 0x75, 0x74, 0x00, 0x00, 0x00,
  0x03, 0x00, 0x00, 0x00, 0x5c, 0x00, 0x00, 0x00, 0x2c, 0x00, 0x00, 0x00,
  0x04, 0x00, 0x00, 0x00, 0xb8, 0xff, 0xff, 0xff, 0x0e, 0x00, 0x00, 0x00,
  0x04, 0x00, 0x00, 0x00, 0x13, 0x00, 0x00, 0x00, 0x43, 0x4f, 0x4e, 0x56,
  0x45, 0x52, 0x53, 0x49, 0x4f, 0x4e, 0x5f, 0x4d, 0x45, 0x54, 0x41, 0x44,
  0x41, 0x54, 0x41, 0x00, 0xdc, 0xff, 0xff, 0xff, 0x0d, 0x00, 0x00, 0x00,
  0x04, 0x00, 0x00, 0x00, 0x13, 0x00, 0x00, 0x00, 0x6d, 0x69, 0x6e, 0x5f,
  0x72, 0x75, 0x6e, 0x74, 0x69, 0x6d, 0x65, 0x5f, 0x76, 0x65, 0x72, 0x73,
  0x69, 0x6f, 0x6e, 0x00, 0x08, 0x00, 0x0c, 0x00, 0x08, 0x00, 0x04, 0x00,
  0x08, 0x00, 0x00, 0x00, 0x0c, 0x00, 0x00, 0x00, 0x04, 0x00, 0x00, 0x00,
  0x13, 0x00, 0x00, 0x00, 0x6d, 0x69, 0x6e, 0x5f, 0x72, 0x75, 0x6e, 0x74,
  0x69, 0x6d, 0x65, 0x5f, 0x76, 0x65, 0x72, 0x73, 0x69, 0x6f, 0x6e, 0x00,
  0x0f, 0x00, 0x00, 0x00, 0x74, 0x06, 0x00, 0x00, 0x6c, 0x06, 0x00, 0x00,
  0x38, 0x06, 0x00, 0x00, 0x74, 0x05, 0x00, 0x00, 0x14, 0x05, 0x00, 0x00,
  0xe4, 0x01, 0x00, 0x00, 0x34, 0x01, 0x00, 0x00, 0xd4, 0x00, 0x00, 0x00,
  0xcc, 0x00, 0x00, 0x00, 0xc4, 0x00, 0x00, 0x00, 0xbc, 0x00, 0x00, 0x00,
  0xb4, 0x00, 0x00, 0x00, 0x94, 0x00, 0x00, 0x00, 0x74, 0x00, 0x00, 0x00,
  0x04, 0x00, 0x00, 0x00, 0x36, 0xf9, 0xff, 0xff, 0x04, 0x00, 0x00, 0x00,
  0x60, 0x00, 0x00, 0x00, 0x0c, 0x00, 0x00, 0x00, 0x08, 0x00, 0x0e, 0x00,
  0x08, 0x00, 0x04, 0x00, 0x08, 0x00, 0x00, 0x00, 0x10, 0x00, 0x00, 0x00,
  0x28, 0x00, 0x00, 0x00, 0x00, 0x00, 0x06, 0x00, 0x08, 0x00, 0x04, 0x00,
  0x06, 0x00, 0x00, 0x00, 0x04, 0x00, 0x00, 0x00, 0x01, 0x00, 0x00, 0x00,
  0xeb, 0x03, 0x00, 0x00, 0x0c, 0x00, 0x18, 0x00, 0x14, 0x00, 0x10, 0x00,
  0x0c, 0x00, 0x04, 0x00, 0x0c, 0x00, 0x00, 0x00, 0xa4, 0x1a, 0xf8, 0xb7,
  0x09, 0x88, 0x4c, 0xca, 0x02, 0x00, 0x00, 0x00, 0x02, 0x00, 0x00, 0x00,
  0x04, 0x00, 0x00, 0x00, 0x06, 0x00, 0x00, 0x00, 0x32, 0x2e, 0x31, 0x38,
  0x2e, 0x30, 0x00, 0x00, 0xa2, 0xf9, 0xff, 0xff, 0x04, 0x00, 0x00, 0x00,
  0x10, 0x00, 0x00, 0x00, 0x00, 0x00, 0x00, 0x00, 0x00, 0x00, 0x00, 0x00,
  0x00, 0x00, 0x00, 0x00, 0x00, 0x00, 0x00, 0x00, 0xbe, 0xf9, 0xff, 0xff,
  0x04, 0x00, 0x00, 0x00, 0x10, 0x00, 0x00, 0x00, 0x31, 0x2e, 0x31, 0x34,
  0x2e, 0x30, 0x00, 0x00, 0x00, 0x00, 0x00, 0x00, 0x00, 0x00, 0x00, 0x00,
  0xa8, 0xf9, 0xff, 0xff, 0xac, 0xf9, 0xff, 0xff, 0xb0, 0xf9, 0xff, 0xff,
  0xb4, 0xf9, 0xff, 0xff, 0xea, 0xf9, 0xff, 0xff, 0x04, 0x00, 0x00, 0x00,
  0x50, 0x00, 0x00, 0x00, 0x75, 0x81, 0x5f, 0x7f, 0x02, 0x81, 0x7f, 0xcf,
  0x81, 0x79, 0x7f, 0x5b, 0x7f, 0x49, 0x81, 0xbe, 0xf4, 0x81, 0x40, 0x7f,
  0x81, 0xf3, 0x81, 0xfc, 0x7f, 0x98, 0x04, 0x81, 0xee, 0x7f, 0x7f, 0x7a,
  0x81, 0x06, 0x81, 0x2d, 0xdb, 0x81, 0x81, 0x82, 0x81, 0x51, 0x20, 0x7f,
  0x7f, 0xdd, 0xb4, 0x7f, 0x7f, 0x9d, 0x81, 0x1b, 0xfa, 0x81, 0x53, 0x81,
  0xef, 0x7f, 0x81, 0x5a, 0xde, 0x7f, 0x7f, 0x70, 0xf1, 0x7f, 0x09, 0x81,
  0x8a, 0x7f, 0x8e, 0x81, 0x52, 0x7f, 0x81, 0x2b, 0x7f, 0x1f, 0x74, 0x81,
  0x46, 0xfa, 0xff, 0xff, 0x04, 0x00, 0x00, 0x00, 0xa0, 0x00, 0x00, 0x00,
  0xe3, 0xfd, 0xff, 0xff, 0x5f, 0x3b, 0x00, 0x00, 0xc2, 0x27, 0x00, 0x00,
  0x04, 0x07, 0x00, 0x00, 0x64, 0x1e, 0x00, 0x00, 0x4b, 0x3a, 0x00, 0x00,
  0xd7, 0x29, 0x00, 0x00, 0xa8, 0x31, 0x00, 0x00, 0xdf, 0x06, 0x00, 0x00,
  0x79, 0x36, 0x00, 0x00, 0x9a, 0xfd, 0xff, 0xff, 0x17, 0xfd, 0xff, 0xff,
  0xbe, 0x13, 0x00, 0x00, 0x52, 0x28, 0x00, 0x00, 0xbc, 0xf6, 0xff, 0xff,
  0x4e, 0x28, 0x00, 0x00, 0x08, 0xf9, 0xff, 0xff, 0x95, 0xf9, 0xff, 0xff,
  0x44, 0x25, 0x00, 0x00, 0xc5, 0x19, 0x00, 0x00, 0xe6, 0x14, 0x00, 0x00,
  0xdd, 0xff, 0xff, 0xff, 0x33, 0xfe, 0xff, 0xff, 0xe3, 0xff, 0xff, 0xff,
  0x19, 0x0c, 0x00, 0x00, 0x65, 0xfe, 0xff, 0xff, 0x0e, 0xf1, 0xff, 0xff,
  0x83, 0xeb, 0xff, 0xff, 0x7a, 0xf8, 0xff, 0xff, 0xee, 0x17, 0x00, 0x00,
  0x84, 0x3c, 0x00, 0x00, 0x03, 0x12, 0x00, 0x00, 0xad, 0xf4, 0xff, 0xff,
  0x5b, 0xf6, 0xff, 0xff, 0x0b, 0xff, 0xff, 0xff, 0x9e, 0x0e, 0x00, 0x00,
  0xbf, 0x23, 0x00, 0x00, 0xf9, 0x15, 0x00, 0x00, 0x3f, 0xf7, 0xff, 0xff,
  0x5c, 0xf5, 0xff, 0xff, 0xf2, 0xfa, 0xff, 0xff, 0x04, 0x00, 0x00, 0x00,
  0x20, 0x03, 0x00, 0x00, 0x1c, 0x3f, 0x89, 0x22, 0x29, 0x24, 0x2b, 0xbe,
  0xc4, 0x1f, 0x00, 0x07, 0xfe, 0x81, 0x3f, 0x4f, 0xe7, 0xf6, 0xaa, 0xcc,
  0x06, 0x5b, 0x1e, 0x33, 0xe9, 0x09, 0x2a, 0x24, 0x5f, 0xe0, 0x19, 0x48,
  0x27, 0x1a, 0x1a, 0xdd, 0x13, 0x05, 0x67, 0xd3, 0x13, 0x22, 0x52, 0xef,
  0xf1, 0xec, 0xe2, 0x54, 0x11, 0x05, 0xd7, 0xc1, 0x23, 0x3c, 0xe7, 0xfd,
  0xc4, 0xc5, 0x45, 0x45, 0xb9, 0x2a, 0xce, 0xd5, 0x12, 0x89, 0x10, 0xd8,
  0x0f, 0xbe, 0x5f, 0xd3, 0x81, 0x17, 0xa6, 0x1f, 0x2a, 0xd7, 0xdc, 0xf0,
  0xe2, 0x22, 0x2a, 0xc5, 0x54, 0x35, 0x1b, 0x27, 0x09, 0x3b, 0x2d, 0x3b,
  0xea, 0x13, 0xf4, 0x29, 0x19, 0x11, 0x3b, 0x45, 0x54, 0x05, 0xae, 0xfc,
  0xad, 0x2b, 0xda, 0x81, 0x13, 0x61, 0x44, 0xd6, 0xe6, 0xe3, 0x03, 0x29,
  0x1f, 0x33, 0x8f, 0xc4, 0x48, 0x3e, 0x7f, 0x37, 0x26, 0x2f, 0x1b, 0x3b,
  0x38, 0x0a, 0x30, 0x3d, 0x6a, 0x64, 0xd1, 0x11, 0xfa, 0x05, 0x5a, 0x41,
  0xf7, 0xc6, 0x2c, 0xda, 0x50, 0x21, 0x27, 0x28, 0xad, 0xf2, 0xdf, 0x32,
  0xa2, 0x54, 0xdf, 0x5c, 0xd7, 0x0d, 0xfa, 0x31, 0xec, 0x58, 0x28, 0xe0,
  0x2f, 0x6b, 0x6a, 0xd0, 0x61, 0x51, 0xe3, 0x8d, 0xaf, 0x01, 0x66, 0x23,
  0xef, 0x0b, 0x46, 0x07, 0x24, 0x79, 0x9c, 0x28, 0xf9, 0x06, 0xf7, 0xdb,
  0x2a, 0xd1, 0x3a, 0xf5, 0x43, 0xd2, 0xf4, 0xca, 0x0d, 0xd2, 0xb6, 0x81,
  0x06, 0xdc, 0x58, 0x25, 0x08, 0xa1, 0x81, 0x0c, 0x5a, 0xbc, 0x26, 0x2f,
  0x1f, 0x51, 0x61, 0xca, 0x67, 0x6c, 0x0b, 0x3c, 0x01, 0x2f, 0x35, 0x5c,
  0x0c, 0x49, 0x24, 0x0d, 0x4c, 0x34, 0x17, 0xbc, 0xfc, 0x55, 0x66, 0x09,
  0xb0, 0x4c, 0x14, 0x11, 0x0b, 0x24, 0xd5, 0x0b, 0x9c, 0xfa, 0x19, 0xf7,
  0xe0, 0x1c, 0x00, 0x00, 0x20, 0xe8, 0xf1, 0x1c, 0x00, 0xff, 0xfe, 0xe1,
  0xa0, 0x08, 0x25, 0xc6, 0x13, 0x00, 0xb8, 0xc6, 0xd5, 0x8d, 0x22, 0x3a,
  0xf7, 0xdf, 0xd2, 0xdf, 0x31, 0x81, 0x0c, 0x04, 0xf2, 0xf5, 0xe0, 0xb5,
  0x2b, 0xe5, 0x07, 0xe9, 0xf7, 0x2d, 0xe3, 0x09, 0x81, 0xce, 0xf7, 0x0c,
  0xee, 0x03, 0xf6, 0x2c, 0x34, 0x1a, 0xa9, 0x26, 0xc2, 0x0c, 0x9b, 0xff,
  0x08, 0x3a, 0x32, 0x2b, 0xe8, 0xb7, 0x3f, 0x30, 0x15, 0xf4, 0xca, 0x16,
  0xb0, 0xec, 0x12, 0x05, 0x05, 0xf9, 0xd7, 0x58, 0x43, 0xbb, 0x28, 0x0c,
  0xb7, 0x50, 0xd5, 0xf2, 0x26, 0x01, 0x6f, 0x6f, 0x0f, 0xa5, 0xe4, 0xbf,
  0xeb, 0x18, 0x1b, 0xf8, 0x9c, 0x33, 0x06, 0xc1, 0xf2, 0x3a, 0x21, 0x2b,
  0xbc, 0x59, 0x81, 0xaf, 0xbd, 0x5a, 0x10, 0xc9, 0xad, 0xf4, 0x12, 0x71,
  0x62, 0x73, 0xbe, 0xb9, 0xc3, 0x1a, 0x0f, 0x39, 0xdc, 0x81, 0x70, 0x2b,
  0xc7, 0x6b, 0xc3, 0x08, 0xd1, 0xdc, 0x5d, 0x83, 0x56, 0xf6, 0x24, 0x42,
  0x29, 0x32, 0x96, 0x31, 0x3f, 0x13, 0xd3, 0x8a, 0x00, 0x00, 0x00, 0x00,
  0x81, 0x00, 0x00, 0x00, 0x00, 0x00, 0x00, 0x00, 0x00, 0x00, 0x00, 0x00,
  0x00, 0x00, 0x00, 0x00, 0xf7, 0x00, 0x00, 0x02, 0x00, 0x00, 0x00, 0x00,
  0x00, 0xfc, 0xfd, 0x00, 0x00, 0x00, 0x00, 0x00, 0x00, 0x00, 0x00, 0x00,
  0x40, 0x37, 0x58, 0x44, 0x3d, 0x25, 0x40, 0x92, 0x4b, 0x47, 0xa3, 0xb1,
  0x34, 0x66, 0x25, 0x65, 0xef, 0xb9, 0x73, 0x12, 0xbe, 0x21, 0x53, 0x00,
  0x08, 0xbb, 0x54, 0x7f, 0x09, 0xf4, 0x2c, 0x51, 0x40, 0x5f, 0xe7, 0x03,
  0xdb, 0xc7, 0xf8, 0x77, 0x12, 0x46, 0x5b, 0x99, 0x00, 0xf7, 0xd1, 0xf3,
  0x46, 0xf1, 0x00, 0x00, 0x69, 0x81, 0x00, 0xf8, 0x15, 0xc7, 0xca, 0xf4,
  0x00, 0xea, 0xe2, 0x00, 0xc7, 0x00, 0x2f, 0x3f, 0x00, 0x00, 0x00, 0x1e,
  0x00, 0x0c, 0x00, 0xd3, 0xeb, 0x00, 0x32, 0x26, 0x0a, 0x63, 0xf9, 0x11,
  0x43, 0x69, 0x4b, 0x4e, 0xb5, 0x5d, 0x1c, 0x12, 0xec, 0xf7, 0xd2, 0x47,
  0xe5, 0xf4, 0xfa, 0x2a, 0xf5, 0xfc, 0x0c, 0x3c, 0x20, 0xf9, 0x81, 0x90,
  0xe7, 0x17, 0x77, 0x4b, 0xd4, 0xa3, 0x23, 0xe9, 0x29, 0x40, 0xfe, 0xe6,
  0x49, 0xfb, 0x46, 0x55, 0x19, 0x0d, 0x3e, 0x21, 0x1f, 0x11, 0xb6, 0xa3,
  0x7c, 0x58, 0x8d, 0xfc, 0xeb, 0xc4, 0x2d, 0xfc, 0xe0, 0xd5, 0x22, 0xc2,
  0x7c, 0x8a, 0xeb, 0x4d, 0x87, 0xf7, 0x2f, 0xda, 0x81, 0x04, 0x12, 0xff,
  0xee, 0xc2, 0xfc, 0x33, 0xb4, 0x10, 0x25, 0x3c, 0xb1, 0x4b, 0x28, 0x22,
  0xfe, 0x4e, 0xf2, 0x2e, 0x07, 0x2f, 0xcb, 0x50, 0x11, 0xf9, 0xed, 0x17,
  0x09, 0x0f, 0x0e, 0xa9, 0xe0, 0x01, 0xf3, 0x81, 0xdc, 0xd2, 0x2e, 0x0e,
  0xd2, 0x09, 0x89, 0x30, 0x2c, 0xfa, 0x37, 0xc0, 0x70, 0xa6, 0xfa, 0x71,
  0x49, 0xda, 0xd6, 0xe3, 0x12, 0x03, 0xd6, 0x0e, 0x7a, 0xfd, 0x35, 0xb1,
  0x1a, 0x35, 0xbe, 0x83, 0x1e, 0x10, 0x3c, 0x7f, 0x7c, 0x6a, 0xee, 0x77,
  0x73, 0x48, 0xf0, 0xeb, 0x70, 0x62, 0x0d, 0x91, 0xdf, 0x39, 0x31, 0x4e,
  0x2d, 0xbb, 0x36, 0xe1, 0x9f, 0xef, 0xbf, 0x03, 0x33, 0xe4, 0xda, 0xf0,
  0xf9, 0x1c, 0xe5, 0xe0, 0xf1, 0x0b, 0x20, 0x1d, 0xbb, 0x14, 0xca, 0xef,
  0xfd, 0xf2, 0xf9, 0xcf, 0x16, 0xa6, 0xde, 0xbf, 0x11, 0x10, 0x0c, 0xfe,
  0xfb, 0x0a, 0x81, 0x20, 0x24, 0x0b, 0x3c, 0x52, 0xd4, 0x40, 0x14, 0x26,
  0x4f, 0xf2, 0x0f, 0x0b, 0x4b, 0x29, 0x0c, 0x4b, 0x00, 0xf7, 0x47, 0x2f,
  0xbd, 0x26, 0x57, 0xe6, 0x66, 0xf1, 0x7f, 0x76, 0xfb, 0xc8, 0xcb, 0x15,
  0x01, 0x51, 0xa6, 0x4d, 0x45, 0xde, 0x76, 0x31, 0xf5, 0x33, 0x06, 0xdf,
  0x40, 0x20, 0x25, 0x31, 0xe7, 0x5e, 0xdd, 0xe3, 0x0a, 0x0d, 0x1d, 0x21,
  0xf1, 0x16, 0x09, 0xf4, 0x2d, 0x10, 0xe4, 0x30, 0xf8, 0xef, 0x81, 0xc9,
  0x1d, 0x3e, 0x72, 0x2d, 0x16, 0xc6, 0x2f, 0xd4, 0x26, 0x2b, 0xe5, 0xd6,
  0x1e, 0xfe, 0xff, 0xff, 0x04, 0x00, 0x00, 0x00, 0x50, 0x00, 0x00, 0x00,
  0xc7, 0xfb, 0xff, 0xff, 0xdf, 0x10, 0x00, 0x00, 0xcc, 0x11, 0x00, 0x00,
  0x03, 0x15, 0x00, 0x00, 0x3c, 0x0a, 0x00, 0x00, 0x95, 0xfe, 0xff, 0xff,
  0x45, 0x08, 0x00, 0x00, 0x42, 0x06, 0x00, 0x00, 0x27, 0x0f, 0x00, 0x00,
  0x2b, 0x0a, 0x00, 0x00, 0x90, 0x5d, 0xed, 0xff, 0x70, 0x0d, 0x00, 0x00,
  0x48, 0xfc, 0xff, 0xff, 0x76, 0x16, 0x00, 0x00, 0x32, 0x12, 0x00, 0x00,
  0xa0, 0x0d, 0x00, 0x00, 0x9f, 0xf7, 0xff, 0xff, 0x74, 0x05, 0x00, 0x00,
  0x94, 0x00, 0x00, 0x00, 0x9a, 0x15, 0x00, 0x00, 0x7a, 0xfe, 0xff, 0xff,
  0x04, 0x00, 0x00, 0x00, 0xb4, 0x00, 0x00, 0x00, 0x3c, 0x81, 0xb1, 0xda,
  0x19, 0xd8, 0x17, 0xc3, 0xd2, 0x24, 0xe2, 0xf2, 0xf1, 0x1b, 0xd8, 0x44,
  0xca, 0xef, 0x19, 0xff, 0xf4, 0xea, 0xec, 0x2a, 0xe6, 0x0a, 0xe3, 0xd9,
  0xbe, 0xc5, 0xf8, 0x29, 0xf6, 0xb9, 0x28, 0xda, 0x34, 0xe6, 0x19, 0x81,
  0x0a, 0xea, 0x17, 0x88, 0xff, 0x44, 0x0a, 0xf8, 0xcd, 0xac, 0xf9, 0x81,
  0xe4, 0x03, 0xc8, 0xa0, 0x42, 0xf1, 0xd8, 0x38, 0xc6, 0xf0, 0x48, 0x20,
  0xac, 0x36, 0xb9, 0xa1, 0x4a, 0x22, 0xd7, 0xdf, 0x2f, 0x90, 0x81, 0x40,
  0xf6, 0xbc, 0x1e, 0x97, 0xd2, 0x62, 0x81, 0x29, 0xd9, 0x2e, 0x07, 0xe8,
  0x02, 0x26, 0xfb, 0xf3, 0xf0, 0xbf, 0x29, 0xf8, 0xcd, 0x4e, 0x27, 0xf6,
  0x2f, 0xb4, 0xea, 0x97, 0x4a, 0x81, 0xaf, 0x4a, 0xd0, 0x1c, 0xdd, 0x16,
  0xdc, 0x0b, 0xef, 0xa9, 0xf2, 0xda, 0xa4, 0x3d, 0xe3, 0xc9, 0x9a, 0x16,
  0x9c, 0xbd, 0x4b, 0xe4, 0xf1, 0x81, 0xd6, 0x05, 0xf5, 0x42, 0x2f, 0x37,
  0x1d, 0xf6, 0x1d, 0xe4, 0xae, 0x8b, 0x47, 0x45, 0xa8, 0xfc, 0xe2, 0x38,
  0x62, 0x8e, 0x26, 0x81, 0x3f, 0x26, 0xef, 0xb8, 0xc0, 0xcd, 0x86, 0x23,
  0xb4, 0x25, 0x15, 0x1f, 0x26, 0xd7, 0x81, 0x99, 0xf9, 0x23, 0x30, 0x03,
  0x0f, 0x08, 0x35, 0x3b, 0xa3, 0x9a, 0xe1, 0x32, 0x3a, 0xff, 0xff, 0xff,
  0x04, 0x00, 0x00, 0x00, 0x24, 0x00, 0x00, 0x00, 0x1f, 0xfe, 0xff, 0xff,
  0xc0, 0xfe, 0xff, 0xff, 0x34, 0x00, 0x00, 0x00, 0x86, 0xfe, 0xff, 0xff,
  0x0b, 0xff, 0xff, 0xff, 0xa2, 0xff, 0xff, 0xff, 0xd8, 0x00, 0x00, 0x00,
  0xd8, 0x00, 0x00, 0x00, 0xeb, 0x02, 0x00, 0x00, 0x38, 0xff, 0xff, 0xff,
  0x3c, 0xff, 0xff, 0xff, 0x0f, 0x00, 0x00, 0x00, 0x4d, 0x4c, 0x49, 0x52,
  0x20, 0x43, 0x6f, 0x6e, 0x76, 0x65, 0x72, 0x74, 0x65, 0x64, 0x2e, 0x00,
  0x01, 0x00, 0x00, 0x00, 0x14, 0x00, 0x00, 0x00, 0x00, 0x00, 0x0e, 0x00,
  0x18, 0x00, 0x14, 0x00, 0x10, 0x00, 0x0c, 0x00, 0x08, 0x00, 0x04, 0x00,
  0x0e, 0x00, 0x00, 0x00, 0x14, 0x00, 0x00, 0x00, 0x1c, 0x00, 0x00, 0x00,
  0x28, 0x01, 0x00, 0x00, 0x2c, 0x01, 0x00, 0x00, 0x30, 0x01, 0x00, 0x00,
  0x04, 0x00, 0x00, 0x00, 0x6d, 0x61, 0x69, 0x6e, 0x00, 0x00, 0x00, 0x00,
  0x04, 0x00, 0x00, 0x00, 0xd0, 0x00, 0x00, 0x00, 0x88, 0x00, 0x00, 0x00,
  0x50, 0x00, 0x00, 0x00, 0x14, 0x00, 0x00, 0x00, 0x00, 0x00, 0x0e, 0x00,
  0x1a, 0x00, 0x14, 0x00, 0x10, 0x00, 0x0c, 0x00, 0x0b, 0x00, 0x04, 0x00,
  0x0e, 0x00, 0x00, 0x00, 0x1c, 0x00, 0x00, 0x00, 0x00, 0x00, 0x00, 0x09,
  0x1c, 0x00, 0x00, 0x00, 0x20, 0x00, 0x00, 0x00, 0x01, 0x00, 0x00, 0x00,
  0x00, 0x00, 0x06, 0x00, 0x08, 0x00, 0x04, 0x00, 0x06, 0x00, 0x00, 0x00,
  0x00, 0x00, 0x80, 0x3f, 0x01, 0x00, 0x00, 0x00, 0x0a, 0x00, 0x00, 0x00,
  0x01, 0x00, 0x00, 0x00, 0x09, 0x00, 0x00, 0x00, 0x96, 0xff, 0xff, 0xff,
  0x14, 0x00, 0x00, 0x00, 0x00, 0x00, 0x00, 0x08, 0x10, 0x00, 0x00, 0x00,
  0x14, 0x00, 0x00, 0x00, 0x04, 0x00, 0x04, 0x00, 0x04, 0x00, 0x00, 0x00,
  0x01, 0x00, 0x00, 0x00, 0x09, 0x00, 0x00, 0x00, 0x03, 0x00, 0x00, 0x00,
  0x08, 0x00, 0x00, 0x00, 0x02, 0x00, 0x00, 0x00, 0x01, 0x00, 0x00, 0x00,
  0xca, 0xff, 0xff, 0xff, 0x10, 0x00, 0x00, 0x00, 0x00, 0x00, 0x00, 0x08,
  0x10, 0x00, 0x00, 0x00, 0x14, 0x00, 0x00, 0x00, 0xba, 0xff, 0xff, 0xff,
  0x00, 0x00, 0x00, 0x01, 0x01, 0x00, 0x00, 0x00, 0x08, 0x00, 0x00, 0x00,
  0x03, 0x00, 0x00, 0x00, 0x07, 0x00, 0x00, 0x00, 0x04, 0x00, 0x00, 0x00,
  0x03, 0x00, 0x00, 0x00, 0x00, 0x00, 0x0e, 0x00, 0x16, 0x00, 0x00, 0x00,
  0x10, 0x00, 0x0c, 0x00, 0x0b, 0x00, 0x04, 0x00, 0x0e, 0x00, 0x00, 0x00,
  0x18, 0x00, 0x00, 0x00, 0x00, 0x00, 0x00, 0x08, 0x18, 0x00, 0x00, 0x00,
  0x1c, 0x00, 0x00, 0x00, 0x00, 0x00, 0x06, 0x00, 0x08, 0x00, 0x07, 0x00,
  0x06, 0x00, 0x00, 0x00, 0x00, 0x00, 0x00, 0x01, 0x01, 0x00, 0x00, 0x00,
  0x07, 0x00, 0x00, 0x00, 0x03, 0x00, 0x00, 0x00, 0x00, 0x00, 0x00, 0x00,
  0x06, 0x00, 0x00, 0x00, 0x05, 0x00, 0x00, 0x00, 0x01, 0x00, 0x00, 0x00,
  0x0a, 0x00, 0x00, 0x00, 0x01, 0x00, 0x00, 0x00, 0x00, 0x00, 0x00, 0x00,
  0x0b, 0x00, 0x00, 0x00, 0x70, 0x0b, 0x00, 0x00, 0x98, 0x0a, 0x00, 0x00,
  0xbc, 0x09, 0x00, 0x00, 0x78, 0x08, 0x00, 0x00, 0x2c, 0x07, 0x00, 0x00,
  0xf8, 0x04, 0x00, 0x00, 0xbc, 0x02, 0x00, 0x00, 0xf0, 0x01, 0x00, 0x00,
  0x24, 0x01, 0x00, 0x00, 0x80, 0x00, 0x00, 0x00, 0x04, 0x00, 0x00, 0x00,
  0xd2, 0xf4, 0xff, 0xff, 0x00, 0x00, 0x00, 0x01, 0x18, 0x00, 0x00, 0x00,
  0x20, 0x00, 0x00, 0x00, 0x3c, 0x00, 0x00, 0x00, 0x0b, 0x00, 0x00, 0x00,
  0x00, 0x00, 0x00, 0x09, 0x50, 0x00, 0x00, 0x00, 0x02, 0x00, 0x00, 0x00,
  0xff, 0xff, 0xff, 0xff, 0x09, 0x00, 0x00, 0x00, 0xbc, 0xf4, 0xff, 0xff,
  0x08, 0x00, 0x00, 0x00, 0x10, 0x00, 0x00, 0x00, 0x01, 0x00, 0x00, 0x00,
  0x80, 0xff, 0xff, 0xff, 0xff, 0xff, 0xff, 0xff, 0x01, 0x00, 0x00, 0x00,
  0x00, 0x00, 0x80, 0x3b, 0x1b, 0x00, 0x00, 0x00, 0x53, 0x74, 0x61, 0x74,
  0x65, 0x66, 0x75, 0x6c, 0x50, 0x61, 0x72, 0x74, 0x69, 0x74, 0x69, 0x6f,
  0x6e, 0x65, 0x64, 0x43, 0x61, 0x6c, 0x6c, 0x5f, 0x31, 0x3a, 0x30, 0x00,
  0x02, 0x00, 0x00, 0x00, 0x01, 0x00, 0x00, 0x00, 0x09, 0x00, 0x00, 0x00,
  0x4a, 0xf5, 0xff, 0xff, 0x00, 0x00, 0x00, 0x01, 0x18, 0x00, 0x00, 0x00,
  0x20, 0x00, 0x00, 0x00, 0x3c, 0x00, 0x00, 0x00, 0x0a, 0x00, 0x00, 0x00,
  0x00, 0x00, 0x00, 0x09, 0x78, 0x00, 0x00, 0x00, 0x02, 0x00, 0x00, 0x00,
  0xff, 0xff, 0xff, 0xff, 0x09, 0x00, 0x00, 0x00, 0x34, 0xf5, 0xff, 0xff,
  0x08, 0x00, 0x00, 0x00, 0x10, 0x00, 0x00, 0x00, 0x01, 0x00, 0x00, 0x00,
  0x1b, 0x00, 0x00, 0x00, 0x00, 0x00, 0x00, 0x00, 0x01, 0x00, 0x00, 0x00,
  0x0c, 0x30, 0x2c, 0x3e, 0x42, 0x00, 0x00, 0x00, 0x67, 0x6c, 0x6f, 0x76,
  0x65, 0x5f, 0x66, 0x63, 0x6e, 0x6e, 0x5f, 0x34, 0x30, 0x5f, 0x32, 0x30,
  0x5f, 0x31, 0x2f, 0x6f, 0x75, 0x74, 0x70, 0x75, 0x74, 0x5f, 0x31, 0x2f,
  0x4d, 0x61, 0x74, 0x4d, 0x75, 0x6c, 0x3b, 0x67, 0x6c, 0x6f, 0x76, 0x65,
  0x5f, 0x66, 0x63, 0x6e, 0x6e, 0x5f, 0x34, 0x30, 0x5f, 0x32, 0x30, 0x5f,
  0x31, 0x2f, 0x6f, 0x75, 0x74, 0x70, 0x75, 0x74, 0x5f, 0x31, 0x2f, 0x41,
  0x64, 0x64, 0x00, 0x00, 0x02, 0x00, 0x00, 0x00, 0x01, 0x00, 0x00, 0x00,
  0x09, 0x00, 0x00, 0x00, 0xea, 0xf5, 0xff, 0xff, 0x00, 0x00, 0x00, 0x01,
  0x18, 0x00, 0x00, 0x00, 0x20, 0x00, 0x00, 0x00, 0x3c, 0x00, 0x00, 0x00,
  0x09, 0x00, 0x00, 0x00, 0x00, 0x00, 0x00, 0x09, 0xa0, 0x00, 0x00, 0x00,
  0x02, 0x00, 0x00, 0x00, 0xff, 0xff, 0xff, 0xff, 0x14, 0x00, 0x00, 0x00,
  0xd4, 0xf5, 0xff, 0xff, 0x08, 0x00, 0x00, 0x00, 0x10, 0x00, 0x00, 0x00,
  0x01, 0x00, 0x00, 0x00, 0x80, 0xff, 0xff, 0xff, 0xff, 0xff, 0xff, 0xff,
  0x01, 0x00, 0x00, 0x00, 0x90, 0xa3, 0x2a, 0x3d, 0x69, 0x00, 0x00, 0x00,
  0x67, 0x6c, 0x6f, 0x76, 0x65, 0x5f, 0x66, 0x63, 0x6e, 0x6e, 0x5f, 0x34,
  0x30, 0x5f, 0x32, 0x30, 0x5f, 0x31, 0x2f, 0x64, 0x65, 0x6e, 0x73, 0x65,
  0x5f, 0x32, 0x30, 0x5f, 0x31, 0x2f, 0x4d, 0x61, 0x74, 0x4d, 0x75, 0x6c,
  0x3b, 0x67, 0x6c, 0x6f, 0x76, 0x65, 0x5f, 0x66, 0x63, 0x6e, 0x6e, 0x5f,
  0x34, 0x30, 0x5f, 0x32, 0x30, 0x5f, 0x31, 0x2f, 0x64, 0x65, 0x6e, 0x73,
  0x65, 0x5f, 0x32, 0x30, 0x5f, 0x31, 0x2f, 0x52, 0x65, 0x6c, 0x75, 0x3b,
  0x67, 0x6c, 0x6f, 0x76, 0x65, 0x5f, 0x66, 0x63, 0x6e, 0x6e, 0x5f, 0x34,
  0x30, 0x5f, 0x32, 0x30, 0x5f, 0x31, 0x2f, 0x64, 0x65, 0x6e, 0x73, 0x65,
  0x5f, 0x32, 0x30, 0x5f, 0x31, 0x2f, 0x41, 0x64, 0x64, 0x00, 0x00, 0x00,
  0x02, 0x00, 0x00, 0x00, 0x01, 0x00, 0x00, 0x00, 0x14, 0x00, 0x00, 0x00,
  0xb2, 0xf6, 0xff, 0xff, 0x00, 0x00, 0x00, 0x01, 0x18, 0x00, 0x00, 0x00,
  0x20, 0x00, 0x00, 0x00, 0x3c, 0x00, 0x00, 0x00, 0x08, 0x00, 0x00, 0x00,
  0x00, 0x00, 0x00, 0x09, 0xa0, 0x00, 0x00, 0x00, 0x02, 0x00, 0x00, 0x00,
  0xff, 0xff, 0xff, 0xff, 0x28, 0x00, 0x00, 0x00, 0x9c, 0xf6, 0xff, 0xff,
  0x08, 0x00, 0x00, 0x00, 0x10, 0x00, 0x00, 0x00, 0x01, 0x00, 0x00, 0x00,
  0x80, 0xff, 0xff, 0xff, 0xff, 0xff, 0xff, 0xff, 0x01, 0x00, 0x00, 0x00,
  0x8c, 0x3d, 0x1e, 0x3c, 0x69, 0x00, 0x00, 0x00, 0x67, 0x6c, 0x6f, 0x76,
  0x65, 0x5f, 0x66, 0x63, 0x6e, 0x6e, 0x5f, 0x34, 0x30, 0x5f, 0x32, 0x30,
  0x5f, 0x31, 0x2f, 0x64, 0x65, 0x6e, 0x73, 0x65, 0x5f, 0x34, 0x30, 0x5f,
  0x31, 0x2f, 0x4d, 0x61, 0x74, 0x4d, 0x75, 0x6c, 0x3b, 0x67, 0x6c, 0x6f,
  0x76, 0x65, 0x5f, 0x66, 0x63, 0x6e, 0x6e, 0x5f, 0x34, 0x30, 0x5f, 0x32,
  0x30, 0x5f, 0x31, 0x2f, 0x64, 0x65, 0x6e, 0x73, 0x65, 0x5f, 0x34, 0x30,
  0x5f, 0x31, 0x2f, 0x52, 0x65, 0x6c, 0x75, 0x3b, 0x67, 0x6c, 0x6f, 0x76,
  0x65, 0x5f, 0x66, 0x63, 0x6e, 0x6e, 0x5f, 0x34, 0x30, 0x5f, 0x32, 0x30,
  0x5f, 0x31, 0x2f, 0x64, 0x65, 0x6e, 0x73, 0x65, 0x5f, 0x34, 0x30, 0x5f,
  0x31, 0x2f, 0x41, 0x64, 0x64, 0x00, 0x00, 0x00, 0x02, 0x00, 0x00, 0x00,
  0x01, 0x00, 0x00, 0x00, 0x28, 0x00, 0x00, 0x00, 0x4e, 0xf8, 0xff, 0xff,
  0x00, 0x00, 0x00, 0x01, 0x14, 0x00, 0x00, 0x00, 0x08, 0x02, 0x00, 0x00,
  0x07, 0x00, 0x00, 0x00, 0x00, 0x00, 0x00, 0x09, 0x14, 0x02, 0x00, 0x00,
  0x54, 0xf7, 0xff, 0xff, 0x08, 0x00, 0x00, 0x00, 0x4c, 0x01, 0x00, 0x00,
  0x28, 0x00, 0x00, 0x00, 0x00, 0x00, 0x00, 0x00, 0x00, 0x00, 0x00, 0x00,
  0x00, 0x00, 0x00, 0x00, 0x00, 0x00, 0x00, 0x00, 0x00, 0x00, 0x00, 0x00,
  0x00, 0x00, 0x00, 0x00, 0x00, 0x00, 0x00, 0x00, 0x00, 0x00, 0x00, 0x00,
  0x00, 0x00, 0x00, 0x00, 0x00, 0x00, 0x00, 0x00, 0x00, 0x00, 0x00, 0x00,
  0x00, 0x00, 0x00, 0x00, 0x00, 0x00, 0x00, 0x00, 0x00, 0x00, 0x00, 0x00,
  0x00, 0x00, 0x00, 0x00, 0x00, 0x00, 0x00, 0x00, 0x00, 0x00, 0x00, 0x00,
  0x00, 0x00, 0x00, 0x00, 0x00, 0x00, 0x00, 0x00, 0x00, 0x00, 0x00, 0x00,
  0x00, 0x00, 0x00, 0x00, 0x00, 0x00, 0x00, 0x00, 0x00, 0x00, 0x00, 0x00,
  0x00, 0x00, 0x00, 0x00, 0x00, 0x00, 0x00, 0x00, 0x00, 0x00, 0x00, 0x00,
  0x00, 0x00, 0x00, 0x00, 0x00, 0x00, 0x00, 0x00, 0x00, 0x00, 0x00, 0x00,
  0x00, 0x00, 0x00, 0x00, 0x00, 0x00, 0x00, 0x00, 0x00, 0x00, 0x00, 0x00,
  0x00, 0x00, 0x00, 0x00, 0x00, 0x00, 0x00, 0x00, 0x00, 0x00, 0x00, 0x00,
  0x00, 0x00, 0x00, 0x00, 0x00, 0x00, 0x00, 0x00, 0x00, 0x00, 0x00, 0x00,
  0x00, 0x00, 0x00, 0x00, 0x00, 0x00, 0x00, 0x00, 0x00, 0x00, 0x00, 0x00,
  0x00, 0x00, 0x00, 0x00, 0x00, 0x00, 0x00, 0x00, 0x00, 0x00, 0x00, 0x00,
  0x00, 0x00, 0x00, 0x00, 0x00, 0x00, 0x00, 0x00, 0x00, 0x00, 0x00, 0x00,
  0x00, 0x00, 0x00, 0x00, 0x00, 0x00, 0x00, 0x00, 0x00, 0x00, 0x00, 0x00,
  0x00, 0x00, 0x00, 0x00, 0x00, 0x00, 0x00, 0x00, 0x00, 0x00, 0x00, 0x00,
  0x00, 0x00, 0x00, 0x00, 0x00, 0x00, 0x00, 0x00, 0x00, 0x00, 0x00, 0x00,
  0x00, 0x00, 0x00, 0x00, 0x00, 0x00, 0x00, 0x00, 0x00, 0x00, 0x00, 0x00,
  0x00, 0x00, 0x00, 0x00, 0x00, 0x00, 0x00, 0x00, 0x00, 0x00, 0x00, 0x00,
  0x00, 0x00, 0x00, 0x00, 0x00, 0x00, 0x00, 0x00, 0x00, 0x00, 0x00, 0x00,
  0x00, 0x00, 0x00, 0x00, 0x00, 0x00, 0x00, 0x00, 0x00, 0x00, 0x00, 0x00,
  0x00, 0x00, 0x00, 0x00, 0x00, 0x00, 0x00, 0x00, 0x00, 0x00, 0x00, 0x00,
  0x00, 0x00, 0x00, 0x00, 0x00, 0x00, 0x00, 0x00, 0x00, 0x00, 0x00, 0x00,
  0x00, 0x00, 0x00, 0x00, 0x00, 0x00, 0x00, 0x00, 0x00, 0x00, 0x00, 0x00,
  0x00, 0x00, 0x00, 0x00, 0x00, 0x00, 0x00, 0x00, 0x00, 0x00, 0x00, 0x00,
  0x00, 0x00, 0x00, 0x00, 0x28, 0x00, 0x00, 0x00, 0x6e, 0xf9, 0xb5, 0x3b,
  0x18, 0x41, 0x39, 0x3b, 0x50, 0x3e, 0x64, 0x3b, 0x1f, 0x4d, 0xd5, 0x3b,
  0xe9, 0xb8, 0xaa, 0x3b, 0x6a, 0xc3, 0x16, 0x3b, 0xe3, 0xe3, 0x82, 0x3b,
  0x85, 0xe7, 0x6a, 0x3b, 0x34, 0x20, 0xc3, 0x3b, 0x9b, 0x6b, 0x6a, 0x3b,
  0x57, 0x80, 0xa8, 0x3b, 0x27, 0xae, 0x64, 0x3b, 0xcb, 0x8f, 0xdd, 0x3b,
  0xcb, 0xd9, 0x8a, 0x3b, 0x03, 0x9e, 0xa2, 0x3b, 0xba, 0x92, 0x84, 0x3b,
  0xc1, 0xe5, 0xb3, 0x3b, 0xac, 0x98, 0x85, 0x3b, 0xd8, 0x36, 0xa5, 0x3b,
  0x98, 0xa7, 0x9e, 0x3b, 0xd0, 0xa2, 0xa7, 0x3b, 0xc3, 0x21, 0xbf, 0x3b,
  0x92, 0x1a, 0xd4, 0x3b, 0x27, 0x77, 0x97, 0x3b, 0x48, 0x73, 0xba, 0x3b,
  0xe5, 0x8f, 0xdf, 0x3b, 0x4a, 0xd3, 0x86, 0x3b, 0x73, 0x47, 0x2c, 0x3b,
  0xdf, 0x15, 0xc1, 0x3b, 0x3e, 0x48, 0x9b, 0x3b, 0xf1, 0xf4, 0x73, 0x3b,
  0xa7, 0x25, 0xab, 0x3b, 0xc3, 0x8f, 0x94, 0x3b, 0x12, 0xd5, 0xaa, 0x3b,
  0xe8, 0x4e, 0x97, 0x3b, 0xab, 0xf9, 0xa5, 0x3b, 0x5e, 0xb8, 0x6a, 0x3b,
  0x67, 0xb2, 0xa6, 0x3b, 0x2d, 0xa6, 0x86, 0x3b, 0xba, 0xca, 0x8d, 0x3b,
  0x12, 0x00, 0x00, 0x00, 0x74, 0x66, 0x6c, 0x2e, 0x70, 0x73, 0x65, 0x75,
  0x64, 0x6f, 0x5f, 0x71, 0x63, 0x6f, 0x6e, 0x73, 0x74, 0x35, 0x00, 0x00,
  0x02, 0x00, 0x00, 0x00, 0x28, 0x00, 0x00, 0x00, 0x02, 0x00, 0x00, 0x00,
  0x86, 0xfa, 0xff, 0xff, 0x00, 0x00, 0x00, 0x01, 0x14, 0x00, 0x00, 0x00,
  0x04, 0x02, 0x00, 0x00, 0x06, 0x00, 0x00, 0x00, 0x00, 0x00, 0x00, 0x02,
  0x10, 0x02, 0x00, 0x00, 0x8c, 0xf9, 0xff, 0xff, 0x08, 0x00, 0x00, 0x00,
  0x48, 0x01, 0x00, 0x00, 0x28, 0x00, 0x00, 0x00, 0x00, 0x00, 0x00, 0x00,
  0x00, 0x00, 0x00, 0x00, 0x00, 0x00, 0x00, 0x00, 0x00, 0x00, 0x00, 0x00,
  0x00, 0x00, 0x00, 0x00, 0x00, 0x00, 0x00, 0x00, 0x00, 0x00, 0x00, 0x00,
  0x00, 0x00, 0x00, 0x00, 0x00, 0x00, 0x00, 0x00, 0x00, 0x00, 0x00, 0x00,
  0x00, 0x00, 0x00, 0x00, 0x00, 0x00, 0x00, 0x00, 0x00, 0x00, 0x00, 0x00,
  0x00, 0x00, 0x00, 0x00, 0x00, 0x00, 0x00, 0x00, 0x00, 0x00, 0x00, 0x00,
  0x00, 0x00, 0x00, 0x00, 0x00, 0x00, 0x00, 0x00, 0x00, 0x00, 0x00, 0x00,
  0x00, 0x00, 0x00, 0x00, 0x00, 0x00, 0x00, 0x00, 0x00, 0x00, 0x00, 0x00,
  0x00, 0x00, 0x00, 0x00, 0x00, 0x00, 0x00, 0x00, 0x00, 0x00, 0x00, 0x00,
  0x00, 0x00, 0x00, 0x00, 0x00, 0x00, 0x00, 0x00, 0x00, 0x00, 0x00, 0x00,
  0x00, 0x00, 0x00, 0x00, 0x00, 0x00, 0x00, 0x00, 0x00, 0x00, 0x00, 0x00,
  0x00, 0x00, 0x00, 0x00, 0x00, 0x00, 0x00, 0x00, 0x00, 0x00, 0x00, 0x00,
  0x00, 0x00, 0x00, 0x00, 0x00, 0x00, 0x00, 0x00, 0x00, 0x00, 0x00, 0x00,
  0x00, 0x00, 0x00, 0x00, 0x00, 0x00, 0x00, 0x00, 0x00, 0x00, 0x00, 0x00,
  0x00, 0x00, 0x00, 0x00, 0x00, 0x00, 0x00, 0x00, 0x00, 0x00, 0x00, 0x00,
  0x00, 0x00, 0x00, 0x00, 0x00, 0x00, 0x00, 0x00, 0x00, 0x00, 0x00, 0x00,
  0x00, 0x00, 0x00, 0x00, 0x00, 0x00, 0x00, 0x00, 0x00, 0x00, 0x00, 0x00,
  0x00, 0x00, 0x00, 0x00, 0x00, 0x00, 0x00, 0x00, 0x00, 0x00, 0x00, 0x00,
  0x00, 0x00, 0x00, 0x00, 0x00, 0x00, 0x00, 0x00, 0x00, 0x00, 0x00, 0x00,
  0x00, 0x00, 0x00, 0x00, 0x00, 0x00, 0x00, 0x00, 0x00, 0x00, 0x00, 0x00,
  0x00, 0x00, 0x00, 0x00, 0x00, 0x00, 0x00, 0x00, 0x00, 0x00, 0x00, 0x00,
  0x00, 0x00, 0x00, 0x00, 0x00, 0x00, 0x00, 0x00, 0x00, 0x00, 0x00, 0x00,
  0x00, 0x00, 0x00, 0x00, 0x00, 0x00, 0x00, 0x00, 0x00, 0x00, 0x00, 0x00,
  0x00, 0x00, 0x00, 0x00, 0x00, 0x00, 0x00, 0x00, 0x00, 0x00, 0x00, 0x00,
  0x00, 0x00, 0x00, 0x00, 0x00, 0x00, 0x00, 0x00, 0x00, 0x00, 0x00, 0x00,
  0x00, 0x00, 0x00, 0x00, 0x00, 0x00, 0x00, 0x00, 0x00, 0x00, 0x00, 0x00,
  0x00, 0x00, 0x00, 0x00, 0x00, 0x00, 0x00, 0x00, 0x00, 0x00, 0x00, 0x00,
  0x00, 0x00, 0x00, 0x00, 0x28, 0x00, 0x00, 0x00, 0x1f, 0x55, 0x95, 0x38,
  0x2b, 0x06, 0x18, 0x38, 0x51, 0x4d, 0x3b, 0x38, 0x46, 0x0a, 0xaf, 0x38,
  0x4c, 0x19, 0x8c, 0x38, 0xa5, 0x70, 0xf7, 0x37, 0xc0, 0xd2, 0x56, 0x38,
  0xa6, 0xc4, 0x40, 0x38, 0xfa, 0x1f, 0xa0, 0x38, 0xf7, 0x5e, 0x40, 0x38,
  0xb7, 0x46, 0x8a, 0x38, 0x18, 0xa9, 0x3b, 0x38, 0x9f, 0xd1, 0xb5, 0x38,
  0x76, 0xe3, 0x63, 0x38, 0x96, 0x72, 0x85, 0x38, 0xde, 0x95, 0x59, 0x38,
  0xd1, 0xa0, 0x93, 0x38, 0xc9, 0x43, 0x5b, 0x38, 0x2a, 0x94, 0x87, 0x38,
  0x21, 0x32, 0x82, 0x38, 0xed, 0x90, 0x89, 0x38, 0xf0, 0xd8, 0x9c, 0x38,
  0xb6, 0x0e, 0xae, 0x38, 0xa4, 0x97, 0x78, 0x38, 0x6f, 0x01, 0x99, 0x38,
  0xde, 0x75, 0xb7, 0x38, 0x26, 0x48, 0x5d, 0x38, 0x59, 0x60, 0x0d, 0x38,
  0x57, 0x73, 0x9e, 0x38, 0x4a, 0xdb, 0x7e, 0x38, 0x62, 0x32, 0x48, 0x38,
  0x89, 0x72, 0x8c, 0x38, 0x8d, 0xd3, 0x73, 0x38, 0x68, 0x30, 0x8c, 0x38,
  0x96, 0x55, 0x78, 0x38, 0x0b, 0x34, 0x88, 0x38, 0xf5, 0x9d, 0x40, 0x38,
  0xa3, 0xcb, 0x88, 0x38, 0x1b, 0xfe, 0x5c, 0x38, 0x36, 0xb7, 0x68, 0x38,
  0x12, 0x00, 0x00, 0x00, 0x74, 0x66, 0x6c, 0x2e, 0x70, 0x73, 0x65, 0x75,
  0x64, 0x6f, 0x5f, 0x71, 0x63, 0x6f, 0x6e, 0x73, 0x74, 0x34, 0x00, 0x00,
  0x01, 0x00, 0x00, 0x00, 0x28, 0x00, 0x00, 0x00, 0xb6, 0xfc, 0xff, 0xff,
  0x00, 0x00, 0x00, 0x01, 0x14, 0x00, 0x00, 0x00, 0x18, 0x01, 0x00, 0x00,
  0x05, 0x00, 0x00, 0x00, 0x00, 0x00, 0x00, 0x09, 0x24, 0x01, 0x00, 0x00,
  0xbc, 0xfb, 0xff, 0xff, 0x08, 0x00, 0x00, 0x00, 0xac, 0x00, 0x00, 0x00,
  0x14, 0x00, 0x00, 0x00, 0x00, 0x00, 0x00, 0x00, 0x00, 0x00, 0x00, 0x00,
  0x00, 0x00, 0x00, 0x00, 0x00, 0x00, 0x00, 0x00, 0x00, 0x00, 0x00, 0x00,
  0x00, 0x00, 0x00, 0x00, 0x00, 0x00, 0x00, 0x00, 0x00, 0x00, 0x00, 0x00,
  0x00, 0x00, 0x00, 0x00, 0x00, 0x00, 0x00, 0x00, 0x00, 0x00, 0x00, 0x00,
  0x00, 0x00, 0x00, 0x00, 0x00, 0x00, 0x00, 0x00, 0x00, 0x00, 0x00, 0x00,
  0x00, 0x00, 0x00, 0x00, 0x00, 0x00, 0x00, 0x00, 0x00, 0x00, 0x00, 0x00,
  0x00, 0x00, 0x00, 0x00, 0x00, 0x00, 0x00, 0x00, 0x00, 0x00, 0x00, 0x00,
  0x00, 0x00, 0x00, 0x00, 0x00, 0x00, 0x00, 0x00, 0x00, 0x00, 0x00, 0x00,
  0x00, 0x00, 0x00, 0x00, 0x00, 0x00, 0x00, 0x00, 0x00, 0x00, 0x00, 0x00,
  0x00, 0x00, 0x00, 0x00, 0x00, 0x00, 0x00, 0x00, 0x00, 0x00, 0x00, 0x00,
  0x00, 0x00, 0x00, 0x00, 0x00, 0x00, 0x00, 0x00, 0x00, 0x00, 0x00, 0x00,
  0x00, 0x00, 0x00, 0x00, 0x00, 0x00, 0x00, 0x00, 0x00, 0x00, 0x00, 0x00,
  0x00, 0x00, 0x00, 0x00, 0x00, 0x00, 0x00, 0x00, 0x00, 0x00, 0x00, 0x00,
  0x00, 0x00, 0x00, 0x00, 0x00, 0x00, 0x00, 0x00, 0x00, 0x00, 0x00, 0x00,
  0x14, 0x00, 0x00, 0x00, 0x75, 0xf4, 0xdd, 0x3b, 0x6d, 0x4a, 0xf7, 0x3b,
  0xf5, 0x46, 0x02, 0x3c, 0xb2, 0x35, 0xd0, 0x3b, 0x9b, 0x68, 0xb1, 0x3b,
  0x3f, 0x81, 0xbe, 0x3b, 0xc2, 0x2e, 0x15, 0x3c, 0x31, 0x57, 0xf8, 0x3b,
  0x2b, 0x72, 0xb6, 0x3b, 0xac, 0xc9, 0x93, 0x3b, 0xdb, 0x00, 0xc6, 0x35,
  0x48, 0x92, 0x95, 0x3b, 0x2f, 0x32, 0x27, 0x3b, 0x20, 0x5e, 0xd9, 0x3b,
  0x53, 0xc7, 0xcf, 0x3b, 0xbe, 0xe9, 0xf8, 0x3b, 0xc4, 0xe2, 0xa0, 0x3b,
  0x94, 0x7a, 0x05, 0x3c, 0xa1, 0x10, 0xf7, 0x3b, 0xcc, 0x25, 0x14, 0x3c,
  0x12, 0x00, 0x00, 0x00, 0x74, 0x66, 0x6c, 0x2e, 0x70, 0x73, 0x65, 0x75,
  0x64, 0x6f, 0x5f, 0x71, 0x63, 0x6f, 0x6e, 0x73, 0x74, 0x33, 0x00, 0x00,
  0x02, 0x00, 0x00, 0x00, 0x14, 0x00, 0x00, 0x00, 0x28, 0x00, 0x00, 0x00,
  0xfe, 0xfd, 0xff, 0xff, 0x00, 0x00, 0x00, 0x01, 0x14, 0x00, 0x00, 0x00,
  0x14, 0x01, 0x00, 0x00, 0x04, 0x00, 0x00, 0x00, 0x00, 0x00, 0x00, 0x02,
  0x20, 0x01, 0x00, 0x00, 0x04, 0xfd, 0xff, 0xff, 0x08, 0x00, 0x00, 0x00,
  0xa8, 0x00, 0x00, 0x00, 0x14, 0x00, 0x00, 0x00, 0x00, 0x00, 0x00, 0x00,
  0x00, 0x00, 0x00, 0x00, 0x00, 0x00, 0x00, 0x00, 0x00, 0x00, 0x00, 0x00,
  0x00, 0x00, 0x00, 0x00, 0x00, 0x00, 0x00, 0x00, 0x00, 0x00, 0x00, 0x00,
  0x00, 0x00, 0x00, 0x00, 0x00, 0x00, 0x00, 0x00, 0x00, 0x00, 0x00, 0x00,
  0x00, 0x00, 0x00, 0x00, 0x00, 0x00, 0x00, 0x00, 0x00, 0x00, 0x00, 0x00,
  0x00, 0x00, 0x00, 0x00, 0x00, 0x00, 0x00, 0x00, 0x00, 0x00, 0x00, 0x00,
  0x00, 0x00, 0x00, 0x00, 0x00, 0x00, 0x00, 0x00, 0x00, 0x00, 0x00, 0x00,
  0x00, 0x00, 0x00, 0x00, 0x00, 0x00, 0x00, 0x00, 0x00, 0x00, 0x00, 0x00,
  0x00, 0x00, 0x00, 0x00, 0x00, 0x00, 0x00, 0x00, 0x00, 0x00, 0x00, 0x00,
  0x00, 0x00, 0x00, 0x00, 0x00, 0x00, 0x00, 0x00, 0x00, 0x00, 0x00, 0x00,
  0x00, 0x00, 0x00, 0x00, 0x00, 0x00, 0x00, 0x00, 0x00, 0x00, 0x00, 0x00,
  0x00, 0x00, 0x00, 0x00, 0x00, 0x00, 0x00, 0x00, 0x00, 0x00, 0x00, 0x00,
  0x00, 0x00, 0x00, 0x00, 0x00, 0x00, 0x00, 0x00, 0x00, 0x00, 0x00, 0x00,
  0x00, 0x00, 0x00, 0x00, 0x00, 0x00, 0x00, 0x00, 0x00, 0x00, 0x00, 0x00,
  0x14, 0x00, 0x00, 0x00, 0x3d, 0x32, 0x89, 0x38, 0x63, 0xdb, 0x98, 0x38,
  0x3b, 0x0e, 0xa1, 0x38, 0x33, 0xb3, 0x80, 0x38, 0x6d, 0x52, 0x5b, 0x38,
  0x24, 0x83, 0x6b, 0x38, 0x73, 0x6d, 0xb8, 0x38, 0x85, 0x81, 0x99, 0x38,
  0xa7, 0x8c, 0x61, 0x38, 0x00, 0xb4, 0x36, 0x38, 0x43, 0xc8, 0x74, 0x32,
  0x7c, 0xe8, 0x38, 0x38, 0x57, 0xb2, 0xce, 0x37, 0x5a, 0x5c, 0x86, 0x38,
  0xf9, 0x6e, 0x80, 0x38, 0x1b, 0xdc, 0x99, 0x38, 0x46, 0xe5, 0x46, 0x38,
  0x7d, 0x03, 0xa5, 0x38, 0xa9, 0xb7, 0x98, 0x38, 0xe4, 0x25, 0xb7, 0x38,
  0x12, 0x00, 0x00, 0x00, 0x74, 0x66, 0x6c, 0x2e, 0x70, 0x73, 0x65, 0x75,
  0x64, 0x6f, 0x5f, 0x71, 0x63, 0x6f, 0x6e, 0x73, 0x74, 0x32, 0x00, 0x00,
  0x01, 0x00, 0x00, 0x00, 0x14, 0x00, 0x00, 0x00, 0x3e, 0xff, 0xff, 0xff,
  0x00, 0x00, 0x00, 0x01, 0x14, 0x00, 0x00, 0x00, 0x90, 0x00, 0x00, 0x00,
  0x03, 0x00, 0x00, 0x00, 0x00, 0x00, 0x00, 0x09, 0x9c, 0x00, 0x00, 0x00,
  0x44, 0xfe, 0xff, 0xff, 0x08, 0x00, 0x00, 0x00, 0x50, 0x00, 0x00, 0x00,
  0x09, 0x00, 0x00, 0x00, 0x00, 0x00, 0x00, 0x00, 0x00, 0x00, 0x00, 0x00,
  0x00, 0x00, 0x00, 0x00, 0x00, 0x00, 0x00, 0x00, 0x00, 0x00, 0x00, 0x00,
  0x00, 0x00, 0x00, 0x00, 0x00, 0x00, 0x00, 0x00, 0x00, 0x00, 0x00, 0x00,
  0x00, 0x00, 0x00, 0x00, 0x00, 0x00, 0x00, 0x00, 0x00, 0x00, 0x00, 0x00,
  0x00, 0x00, 0x00, 0x00, 0x00, 0x00, 0x00, 0x00, 0x00, 0x00, 0x00, 0x00,
  0x00, 0x00, 0x00, 0x00, 0x00, 0x00, 0x00, 0x00, 0x00, 0x00, 0x00, 0x00,
  0x00, 0x00, 0x00, 0x00, 0x09, 0x00, 0x00, 0x00, 0xf7, 0xda, 0x1d, 0x3c,
  0x0a, 0x9e, 0x4f, 0x3c, 0xf4, 0x43, 0x0d, 0x3c, 0x71, 0x81, 0x05, 0x3c,
  0xab, 0xf1, 0x07, 0x3c, 0x8f, 0x2a, 0x11, 0x3c, 0xaf, 0xe5, 0x16, 0x3c,
  0x7b, 0xf8, 0xe3, 0x3b, 0x8e, 0x1d, 0x04, 0x3c, 0x12, 0x00, 0x00, 0x00,
  0x74, 0x66, 0x6c, 0x2e, 0x70, 0x73, 0x65, 0x75, 0x64, 0x6f, 0x5f, 0x71,
  0x63, 0x6f, 0x6e, 0x73, 0x74, 0x31, 0x00, 0x00, 0x02, 0x00, 0x00, 0x00,
  0x09, 0x00, 0x00, 0x00, 0x14, 0x00, 0x00, 0x00, 0x00, 0x00, 0x16, 0x00,
  0x1c, 0x00, 0x18, 0x00, 0x17, 0x00, 0x10, 0x00, 0x0c, 0x00, 0x08, 0x00,
  0x00, 0x00, 0x00, 0x00, 0x00, 0x00, 0x07, 0x00, 0x16, 0x00, 0x00, 0x00,
  0x00, 0x00, 0x00, 0x01, 0x14, 0x00, 0x00, 0x00, 0x90, 0x00, 0x00, 0x00,
  0x02, 0x00, 0x00, 0x00, 0x00, 0x00, 0x00, 0x02, 0x9c, 0x00, 0x00, 0x00,
  0x1c, 0xff, 0xff, 0xff, 0x08, 0x00, 0x00, 0x00, 0x50, 0x00, 0x00, 0x00,
  0x09, 0x00, 0x00, 0x00, 0x00, 0x00, 0x00, 0x00, 0x00, 0x00, 0x00, 0x00,
  0x00, 0x00, 0x00, 0x00, 0x00, 0x00, 0x00, 0x00, 0x00, 0x00, 0x00, 0x00,
  0x00, 0x00, 0x00, 0x00, 0x00, 0x00, 0x00, 0x00, 0x00, 0x00, 0x00, 0x00,
  0x00, 0x00, 0x00, 0x00, 0x00, 0x00, 0x00, 0x00, 0x00, 0x00, 0x00, 0x00,
  0x00, 0x00, 0x00, 0x00, 0x00, 0x00, 0x00, 0x00, 0x00, 0x00, 0x00, 0x00,
  0x00, 0x00, 0x00, 0x00, 0x00, 0x00, 0x00, 0x00, 0x00, 0x00, 0x00, 0x00,
  0x00, 0x00, 0x00, 0x00, 0x09, 0x00, 0x00, 0x00, 0x86, 0x70, 0xd2, 0x39,
  0x99, 0x63, 0x0a, 0x3a, 0xc4, 0x52, 0xbc, 0x39, 0x83, 0xfa, 0xb1, 0x39,
  0xae, 0x3a, 0xb5, 0x39, 0x05, 0x86, 0xc1, 0x39, 0xdf, 0x29, 0xc9, 0x39,
  0xa9, 0xf4, 0x97, 0x39, 0x13, 0x20, 0xb0, 0x39, 0x11, 0x00, 0x00, 0x00,
  0x74, 0x66, 0x6c, 0x2e, 0x70, 0x73, 0x65, 0x75, 0x64, 0x6f, 0x5f, 0x71,
  0x63, 0x6f, 0x6e, 0x73, 0x74, 0x00, 0x00, 0x00, 0x01, 0x00, 0x00, 0x00,
  0x09, 0x00, 0x00, 0x00, 0x00, 0x00, 0x16, 0x00, 0x20, 0x00, 0x1c, 0x00,
  0x1b, 0x00, 0x14, 0x00, 0x10, 0x00, 0x0c, 0x00, 0x00, 0x00, 0x00, 0x00,
  0x08, 0x00, 0x07, 0x00, 0x16, 0x00, 0x00, 0x00, 0x00, 0x00, 0x00, 0x01,
  0x18, 0x00, 0x00, 0x00, 0x2c, 0x00, 0x00, 0x00, 0x48, 0x00, 0x00, 0x00,
  0x01, 0x00, 0x00, 0x00, 0x00, 0x00, 0x00, 0x09, 0x58, 0x00, 0x00, 0x00,
  0x02, 0x00, 0x00, 0x00, 0xff, 0xff, 0xff, 0xff, 0x02, 0x00, 0x00, 0x00,
  0x0c, 0x00, 0x0c, 0x00, 0x00, 0x00, 0x00, 0x00, 0x08, 0x00, 0x04, 0x00,
  0x0c, 0x00, 0x00, 0x00, 0x08, 0x00, 0x00, 0x00, 0x10, 0x00, 0x00, 0x00,
  0x01, 0x00, 0x00, 0x00, 0xf6, 0xff, 0xff, 0xff, 0xff, 0xff, 0xff, 0xff,
  0x01, 0x00, 0x00, 0x00, 0x6a, 0x14, 0x52, 0x3c, 0x17, 0x00, 0x00, 0x00,
  0x73, 0x65, 0x72, 0x76, 0x69, 0x6e, 0x67, 0x5f, 0x64, 0x65, 0x66, 0x61,
  0x75, 0x6c, 0x74, 0x5f, 0x69, 0x6e, 0x70, 0x75, 0x74, 0x3a, 0x30, 0x00,
  0x02, 0x00, 0x00, 0x00, 0x01, 0x00, 0x00, 0x00, 0x02, 0x00, 0x00, 0x00,
  0x02, 0x00, 0x00, 0x00, 0x24, 0x00, 0x00, 0x00, 0x04, 0x00, 0x00, 0x00,
  0xf0, 0xff, 0xff, 0xff, 0x19, 0x00, 0x00, 0x00, 0x02, 0x00, 0x00, 0x00,
  0x00, 0x00, 0x00, 0x19, 0x0c, 0x00, 0x10, 0x00, 0x0f, 0x00, 0x00, 0x00,
  0x08, 0x00, 0x04, 0x00, 0x0c, 0x00, 0x00, 0x00, 0x09, 0x00, 0x00, 0x00,
  0x04, 0x00, 0x00, 0x00, 0x00, 0x00, 0x00, 0x09
};
const unsigned int g_glove_model_len = 5456;
